{
  "version": "1.0",
  "truncation": null,
  "padding": null,
  "added_tokens": [
    {
      "id": 0,
      "content": "<|endoftext|>",
      "single_word": false,
      "lstrip": false,
      "rstrip": false,
      "normalized": false,
      "special": true
    },
    {
      "id": 1,
      "content": "<|pad|>",
      "single_word": false,
      "lstrip": false,
      "rstrip": false,
      "normalized": false,
      "special": true
    },
    {
      "id": 2,
      "content": "<|unk|>",
      "single_word": false,
      "lstrip": false,
      "rstrip": false,
      "normalized": false,
      "special": true
    }
  ],
  "normalizer": null,
  "pre_tokenizer": {
    "type": "ByteLevel",
    "add_prefix_space": false,
    "trim_offsets": true,
    "use_regex": true
  },
  "post_processor": {
    "type": "ByteLevel",
    "add_prefix_space": true,
    "trim_offsets": false,
    "use_regex": true
  },
  "decoder": {
    "type": "ByteLevel",
    "add_prefix_space": true,
    "trim_offsets": true,
    "use_regex": true
  },
  "model": {
    "type": "BPE",
    "dropout": null,
    "unk_token": null,
    "continuing_subword_prefix": null,
    "end_of_word_suffix": null,
    "fuse_unk": false,
    "byte_fallback": false,
    "ignore_merges": false,
    "vocab": {
      "<|endoftext|>": 0,
      "<|pad|>": 1,
      "<|unk|>": 2,
      "!": 3,
      "\"": 4,
      "#": 5,
      "$": 6,
      "%": 7,
      "&": 8,
      "'": 9,
      "(": 10,
      ")": 11,
      "*": 12,
      "+": 13,
      ",": 14,
      "-": 15,
      ".": 16,
      "/": 17,
      "0": 18,
      "1": 19,
      "2": 20,
      "3": 21,
      "4": 22,
      "5": 23,
      "6": 24,
      "7": 25,
      "8": 26,
      "9": 27,
      ":": 28,
      ";": 29,
      "<": 30,
      "=": 31,
      ">": 32,
      "?": 33,
      "@": 34,
      "A": 35,
      "B": 36,
      "C": 37,
      "D": 38,
      "E": 39,
      "F": 40,
      "G": 41,
      "H": 42,
      "I": 43,
      "J": 44,
      "K": 45,
      "L": 46,
      "M": 47,
      "N": 48,
      "O": 49,
      "P": 50,
      "Q": 51,
      "R": 52,
      "S": 53,
      "T": 54,
      "U": 55,
      "V": 56,
      "W": 57,
      "X": 58,
      "Y": 59,
      "Z": 60,
      "[": 61,
      "\\": 62,
      "]": 63,
      "^": 64,
      "_": 65,
      "`": 66,
      "a": 67,
      "b": 68,
      "c": 69,
      "d": 70,
      "e": 71,
      "f": 72,
      "g": 73,
      "h": 74,
      "i": 75,
      "j": 76,
      "k": 77,
      "l": 78,
      "m": 79,
      "n": 80,
      "o": 81,
      "p": 82,
      "q": 83,
      "r": 84,
      "s": 85,
      "t": 86,
      "u": 87,
      "v": 88,
      "w": 89,
      "x": 90,
      "y": 91,
      "z": 92,
      "{": 93,
      "|": 94,
      "}": 95,
      "~": 96,
      "¡": 97,
      "¢": 98,
      "£": 99,
      "¤": 100,
      "¥": 101,
      "¦": 102,
      "§": 103,
      "¨": 104,
      "©": 105,
      "ª": 106,
      "«": 107,
      "¬": 108,
      "®": 109,
      "¯": 110,
      "°": 111,
      "±": 112,
      "²": 113,
      "³": 114,
      "´": 115,
      "µ": 116,
      "¶": 117,
      "·": 118,
      "¸": 119,
      "¹": 120,
      "º": 121,
      "»": 122,
      "¼": 123,
      "½": 124,
      "¾": 125,
      "¿": 126,
      "À": 127,
      "Á": 128,
      "Â": 129,
      "Ã": 130,
      "Ä": 131,
      "Å": 132,
      "Æ": 133,
      "Ç": 134,
      "È": 135,
      "É": 136,
      "Ê": 137,
      "Ë": 138,
      "Ì": 139,
      "Í": 140,
      "Î": 141,
      "Ï": 142,
      "Ð": 143,
      "Ñ": 144,
      "Ò": 145,
      "Ó": 146,
      "Ô": 147,
      "Õ": 148,
      "Ö": 149,
      "×": 150,
      "Ø": 151,
      "Ù": 152,
      "Ú": 153,
      "Û": 154,
      "Ü": 155,
      "Ý": 156,
      "Þ": 157,
      "ß": 158,
      "à": 159,
      "á": 160,
      "â": 161,
      "ã": 162,
      "ä": 163,
      "å": 164,
      "æ": 165,
      "ç": 166,
      "è": 167,
      "é": 168,
      "ê": 169,
      "ë": 170,
      "ì": 171,
      "í": 172,
      "î": 173,
      "ï": 174,
      "ð": 175,
      "ñ": 176,
      "ò": 177,
      "ó": 178,
      "ô": 179,
      "õ": 180,
      "ö": 181,
      "÷": 182,
      "ø": 183,
      "ù": 184,
      "ú": 185,
      "û": 186,
      "ü": 187,
      "ý": 188,
      "þ": 189,
      "ÿ": 190,
      "Ā": 191,
      "ā": 192,
      "Ă": 193,
      "ă": 194,
      "Ą": 195,
      "ą": 196,
      "Ć": 197,
      "ć": 198,
      "Ĉ": 199,
      "ĉ": 200,
      "Ċ": 201,
      "ċ": 202,
      "Č": 203,
      "č": 204,
      "Ď": 205,
      "ď": 206,
      "Đ": 207,
      "đ": 208,
      "Ē": 209,
      "ē": 210,
      "Ĕ": 211,
      "ĕ": 212,
      "Ė": 213,
      "ė": 214,
      "Ę": 215,
      "ę": 216,
      "Ě": 217,
      "ě": 218,
      "Ĝ": 219,
      "ĝ": 220,
      "Ğ": 221,
      "ğ": 222,
      "Ġ": 223,
      "ġ": 224,
      "Ģ": 225,
      "ģ": 226,
      "Ĥ": 227,
      "ĥ": 228,
      "Ħ": 229,
      "ħ": 230,
      "Ĩ": 231,
      "ĩ": 232,
      "Ī": 233,
      "ī": 234,
      "Ĭ": 235,
      "ĭ": 236,
      "Į": 237,
      "į": 238,
      "İ": 239,
      "ı": 240,
      "Ĳ": 241,
      "ĳ": 242,
      "Ĵ": 243,
      "ĵ": 244,
      "Ķ": 245,
      "ķ": 246,
      "ĸ": 247,
      "Ĺ": 248,
      "ĺ": 249,
      "Ļ": 250,
      "ļ": 251,
      "Ľ": 252,
      "ľ": 253,
      "Ŀ": 254,
      "ŀ": 255,
      "Ł": 256,
      "ł": 257,
      "Ń": 258,
      "ĠĠ": 259,
      "Ġt": 260,
      "Ġa": 261,
      "in": 262,
      "he": 263,
      "ĠĠĠĠ": 264,
      "re": 265,
      "on": 266,
      "at": 267,
      "er": 268,
      "Ġthe": 269,
      "Ġs": 270,
      "en": 271,
      "Ġo": 272,
      "Ġc": 273,
      "or": 274,
      "is": 275,
      "Ġw": 276,
      "it": 277,
      "al": 278,
      "es": 279,
      "ed": 280,
      "Ġp": 281,
      "an": 282,
      "--": 283,
      "Ġf": 284,
      "Ġan": 285,
      "Ġb": 286,
      "ĠĠĠĠĠĠĠĠ": 287,
      "Ġin": 288,
      "Ġof": 289,
      "ion": 290,
      "ing": 291,
      "ar": 292,
      "Ġd": 293,
      "ic": 294,
      "Ġm": 295,
      "ro": 296,
      "le": 297,
      "Ġand": 298,
      "Ġto": 299,
      "as": 300,
      "ou": 301,
      "ct": 302,
      "ent": 303,
      "Ġth": 304,
      "et": 305,
      "Ġre": 306,
      "Ġh": 307,
      "el": 308,
      "st": 309,
      "Ġn": 310,
      "om": 311,
      "Ġe": 312,
      "----": 313,
      "il": 314,
      "Ġl": 315,
      "Ġ(": 316,
      "ig": 317,
      "im": 318,
      "id": 319,
      "ot": 320,
      "Ġis": 321,
      "ve": 322,
      "ation": 323,
      "ut": 324,
      "ol": 325,
      "ĠT": 326,
      "am": 327,
      "Ġg": 328,
      "us": 329,
      "ce": 330,
      "ĠĠĠ": 331,
      "ĠI": 332,
      "ly": 333,
      "ur": 334,
      "Ġfor": 335,
      "ĠĠĠĠĠĠĠĠĠĠĠĠĠĠĠĠ": 336,
      "un": 337,
      "ĠS": 338,
      "ow": 339,
      "ra": 340,
      "Ġbe": 341,
      "Ġ1": 342,
      "ul": 343,
      "ĠC": 344,
      "ĠA": 345,
      "ch": 346,
      "Ġthat": 347,
      "Ġst": 348,
      "if": 349,
      "Ġon": 350,
      "ith": 351,
      "ver": 352,
      "se": 353,
      "âĢ": 354,
      "Ġ$": 355,
      "Ġcon": 356,
      "ad": 357,
      "Ġwith": 358,
      "00": 359,
      "Ġas": 360,
      "od": 361,
      "==": 362,
      "Ġpro": 363,
      "ay": 364,
      "ir": 365,
      "ter": 366,
      "ate": 367,
      "um": 368,
      "pe": 369,
      "ab": 370,
      "Ġv": 371,
      "--------": 372,
      "Ġ\\": 373,
      "ag": 374,
      "Ġ2": 375,
      "ri": 376,
      "em": 377,
      "Ġal": 378,
      "ĠM": 379,
      "ere": 380,
      "her": 381,
      "Ġy": 382,
      "res": 383,
      "qu": 384,
      "ĠP": 385,
      "pp": 386,
      "Ġit": 387,
      "os": 388,
      "Ġde": 389,
      "Ġex": 390,
      "ĠThe": 391,
      "ist": 392,
      "Ġwh": 393,
      "ac": 394,
      "Ġ=": 395,
      "est": 396,
      "Ġor": 397,
      "ant": 398,
      "iv": 399,
      "Ġcom": 400,
      "Ġwas": 401,
      "Ġ-": 402,
      "ĠB": 403,
      "Ġby": 404,
      "th": 405,
      "Ġsu": 406,
      "ment": 407,
      "oc": 408,
      "ction": 409,
      "ity": 410,
      "ĠF": 411,
      "ht": 412,
      "Ġat": 413,
      "Ġare": 414,
      "ain": 415,
      "ess": 416,
      "ĠD": 417,
      "op": 418,
      "rom": 419,
      "ers": 420,
      "ĠH": 421,
      "Ġse": 422,
      "**": 423,
      "ore": 424,
      "and": 425,
      "Ġhe": 426,
      "our": 427,
      "ive": 428,
      "ĠL": 429,
      "end": 430,
      "ĠW": 431,
      "pt": 432,
      "ĠR": 433,
      "nt": 434,
      "Ġnot": 435,
      "{\\": 436,
      "ud": 437,
      "ill": 438,
      "ort": 439,
      "ld": 440,
      "Ġr": 441,
      "ĠĠĠĠĠĠĠ": 442,
      "ĠN": 443,
      "ure": 444,
      "Ġ\"": 445,
      "Ġ0": 446,
      "Ġus": 447,
      "pl": 448,
      "ke": 449,
      "Ġfrom": 450,
      "ĊĠĠĠ": 451,
      "Ġha": 452,
      "art": 453,
      "Ġne": 454,
      "ated": 455,
      "ell": 456,
      "Ġthis": 457,
      "Ġ*": 458,
      "ial": 459,
      "ect": 460,
      "ight": 461,
      "ies": 462,
      "up": 463,
      "ĠE": 464,
      "ine": 465,
      "Ġwe": 466,
      ").": 467,
      "Ġsh": 468,
      "Ġun": 469,
      "ĠG": 470,
      "og": 471,
      "Ġch": 472,
      "ff": 473,
      "ical": 474,
      "all": 475,
      "per": 476,
      "ge": 477,
      "====": 478,
      "ĠĠĠĠĠĠĠĠĠĠĠĠĠĠĠĠĠĠĠĠĠĠĠĠĠĠĠĠĠĠĠĠ": 479,
      "ich": 480,
      "iz": 481,
      "Ġhave": 482,
      "Ġyou": 483,
      "Ġ3": 484,
      "nd": 485,
      "te": 486,
      "ath": 487,
      "ue": 488,
      "ib": 489,
      "cl": 490,
      "ult": 491,
      "Ġle": 492,
      "Ġres": 493,
      "able": 494,
      "ame": 495,
      "age": 496,
      "ĠO": 497,
      "Ġ{": 498,
      "ase": 499,
      "Ġcan": 500,
      "âĢĻ": 501,
      "Ġ[": 502,
      "ould": 503,
      "ph": 504,
      "01": 505,
      "Ġcomp": 506,
      "ust": 507,
      "act": 508,
      "ĊĠ": 509,
      "----------------": 510,
      "ĊĠĠĠĠĠĠĠĠ": 511,
      "=\"": 512,
      "Ġ+": 513,
      "Ġcl": 514,
      "ard": 515,
      ");": 516,
      "are": 517,
      "orm": 518,
      "_{": 519,
      "der": 520,
      "ie": 521,
      "Ġwhe": 522,
      "ign": 523,
      "Ġwere": 524,
      "'s": 525,
      "Ġcont": 526,
      "ass": 527,
      "Ġad": 528,
      "ost": 529,
      "ther": 530,
      "Ġim": 531,
      "ition": 532,
      "Ġint": 533,
      "ans": 534,
      "Âł": 535,
      "du": 536,
      "Ġk": 537,
      "ome": 538,
      "Ġj": 539,
      "Ġwhich": 540,
      "Ġpl": 541,
      "ack": 542,
      "ub": 543,
      "Ġab": 544,
      "ĠU": 545,
      "ip": 546,
      "}}": 547,
      "ast": 548,
      "ens": 549,
      "ap": 550,
      "out": 551,
      "ĠIn": 552,
      "),": 553,
      "ary": 554,
      "ire": 555,
      "ide": 556,
      "ty": 557,
      "ĊĠĠĠĠĠĠĠ": 558,
      "ĠJ": 559,
      "Ġ4": 560,
      "cc": 561,
      "Ġall": 562,
      "de": 563,
      "int": 564,
      "Ġme": 565,
      "//": 566,
      "..": 567,
      "The": 568,
      "ations": 569,
      "Ġdis": 570,
      "ous": 571,
      "Ġtr": 572,
      "con": 573,
      "ress": 574,
      "ence": 575,
      "one": 576,
      "ory": 577,
      "ak": 578,
      "ime": 579,
      "ice": 580,
      "ug": 581,
      "ents": 582,
      "ref": 583,
      "Ġ5": 584,
      "ĉĉ": 585,
      "Ġdo": 586,
      "ong": 587,
      "ind": 588,
      "Ġhas": 589,
      "ile": 590,
      "Ġ<": 591,
      "Ġen": 592,
      "Ġ$\\": 593,
      "Ġper": 594,
      "Ġbut": 595,
      "ance": 596,
      "ber": 597,
      "ia": 598,
      "ork": 599,
      "Ġapp": 600,
      "iff": 601,
      "ose": 602,
      "ord": 603,
      "ys": 604,
      "xt": 605,
      "av": 606,
      "so": 607,
      "form": 608,
      "ĠĠĠĠĠ": 609,
      "math": 610,
      "ely": 611,
      "[@": 612,
      "ĠTh": 613,
      "ang": 614,
      "ok": 615,
      "ace": 616,
      "ach": 617,
      "Ġpre": 618,
      "ĠâĢ": 619,
      "Ġif": 620,
      "ru": 621,
      "ep": 622,
      "\\]": 623,
      "Ġwill": 624,
      "ions": 625,
      "ally": 626,
      "Ġar": 627,
      "Ġ&": 628,
      "ors": 629,
      "port": 630,
      "Ġone": 631,
      "ĊĊ": 632,
      "Ġqu": 633,
      "ata": 634,
      "ne": 635,
      "}$": 636,
      "Ġev": 637,
      "Ġout": 638,
      "Ġpart": 639,
      "cre": 640,
      "ft": 641,
      "ite": 642,
      "vel": 643,
      "ail": 644,
      "Ġso": 645,
      "ĠK": 646,
      "lic": 647,
      "ry": 648,
      "^{": 649,
      "Ġ19": 650,
      "Ġhis": 651,
      "ific": 652,
      "ear": 653,
      "Ġob": 654,
      "Ġ}": 655,
      "com": 656,
      "own": 657,
      "ates": 658,
      "urn": 659,
      "Ġother": 660,
      "Ġgo": 661,
      "ĠV": 662,
      "und": 663,
      "erv": 664,
      "ll": 665,
      "ree": 666,
      "ound": 667,
      "10": 668,
      "Ġmore": 669,
      "erm": 670,
      "ĠSt": 671,
      "Ġro": 672,
      "ount": 673,
      "we": 674,
      "19": 675,
      "Ġtheir": 676,
      "Ġalso": 677,
      "Ġup": 678,
      "low": 679,
      "Ġ6": 680,
      "ject": 681,
      "ma": 682,
      "aus": 683,
      "Ġgen": 684,
      "Ġsy": 685,
      "eth": 686,
      "lect": 687,
      "ric": 688,
      "rac": 689,
      "Ġass": 690,
      "Ġman": 691,
      "Ġthey": 692,
      "Ġag": 693,
      "ple": 694,
      "ater": 695,
      "Ġno": 696,
      "Ġdiff": 697,
      "rib": 698,
      "Ġbeen": 699,
      "Ġsp": 700,
      "Ġspe": 701,
      "very": 702,
      "Ġsub": 703,
      "Ġli": 704,
      "clud": 705,
      "Ġthere": 706,
      "wo": 707,
      "ces": 708,
      "Ġ'": 709,
      "Ġbet": 710,
      "12": 711,
      "Ġmod": 712,
      "========": 713,
      "Ġinter": 714,
      "ied": 715,
      "ring": 716,
      "Ġhad": 717,
      "Ġany": 718,
      "Ġsc": 719,
      "Ġdef": 720,
      "Ġyour": 721,
      "Ġwhen": 722,
      "Ġtime": 723,
      "ake": 724,
      "lo": 725,
      "Ġgro": 726,
      "In": 727,
      "vers": 728,
      "Ġthan": 729,
      "ative": 730,
      "irst": 731,
      "Ġits": 732,
      "fter": 733,
      "__": 734,
      "ced": 735,
      "ari": 736,
      "Ġdes": 737,
      "</": 738,
      "ular": 739,
      "Ġval": 740,
      "Ġam": 741,
      "Ġstud": 742,
      "ef": 743,
      "iss": 744,
      "](": 745,
      "Ġwould": 746,
      "Ġrel": 747,
      "Ġact": 748,
      "unction": 749,
      "type": 750,
      "Ġacc": 751,
      "Ġmay": 752,
      "âĢĿ": 753,
      "Ġcons": 754,
      "Ġ7": 755,
      "ĊĠĠĠĠĠĠĠĠĠĠĠ": 756,
      "ode": 757,
      "ove": 758,
      "Ġtrans": 759,
      "}\\": 760,
      "ks": 761,
      "get": 762,
      "Ġte": 763,
      "Ġmy": 764,
      "ov": 765,
      "Ġover": 766,
      "pon": 767,
      "Ġsome": 768,
      "hat": 769,
      "Ġ\\[": 770,
      "ating": 771,
      "Ġrec": 772,
      "Ġwork": 773,
      "Ġunder": 774,
      "dition": 775,
      "Ġwho": 776,
      "){": 777,
      "ual": 778,
      "Ġnew": 779,
      "Ġcell": 780,
      "Ġreg": 781,
      "Ġhig": 782,
      "ased": 783,
      "ert": 784,
      "ook": 785,
      "pro": 786,
      "Ġcomm": 787,
      "old": 788,
      "Ġdet": 789,
      "Ġsuch": 790,
      "11": 791,
      "Ġtwo": 792,
      "stem": 793,
      "Ġph": 794,
      "iew": 795,
      "cess": 796,
      "Ġpos": 797,
      "Ġfe": 798,
      "pect": 799,
      "Ġ8": 800,
      "fig": 801,
      "Ġeff": 802,
      "Ġdiffere": 803,
      "Ġform": 804,
      "ati": 805,
      "Ġabout": 806,
      "Ġonly": 807,
      "the": 808,
      "ays": 809,
      "ause": 810,
      "oug": 811,
      "##": 812,
      "Ġinto": 813,
      "Ġsign": 814,
      "ta": 815,
      "ĠIt": 816,
      "ĠThis": 817,
      "Ġret": 818,
      "ec": 819,
      "Ġpres": 820,
      "Ġinv": 821,
      "reat": 822,
      "hed": 823,
      "red": 824,
      "eg": 825,
      "\",": 826,
      "ings": 827,
      "ĠY": 828,
      "Ġem": 829,
      "ild": 830,
      "ween": 831,
      "Ġprov": 832,
      "ility": 833,
      "Ġ10": 834,
      "Ġresult": 835,
      ".,": 836,
      "Ġco": 837,
      "ark": 838,
      "ution": 839,
      "Ġkn": 840,
      "Ġour": 841,
      "Ġexp": 842,
      "Ġfirst": 843,
      "Ġcol": 844,
      "oint": 845,
      "ob": 846,
      "right": 847,
      "itt": 848,
      "Ġthese": 849,
      "olog": 850,
      "Ġoff": 851,
      "\"}": 852,
      "Ġ9": 853,
      "ish": 854,
      ")$": 855,
      "Ġbetween": 856,
      "ex": 857,
      "ock": 858,
      "Ġdata": 859,
      "ĠĠĠĠĠĠ": 860,
      "ian": 861,
      "ĠWe": 862,
      "Ġwhere": 863,
      "Ċĉ": 864,
      "Ġset": 865,
      "--------------------------------": 866,
      "oth": 867,
      "Ġsa": 868,
      "Ġ[@": 869,
      "ize": 870,
      "Ġind": 871,
      "ont": 872,
      "Ġi": 873,
      "Ġget": 874,
      "20": 875,
      "ss": 876,
      "ink": 877,
      "Ġbec": 878,
      "ĠCh": 879,
      "ugh": 880,
      "000": 881,
      "Ċĉĉ": 882,
      "ps": 883,
      "ollow": 884,
      "Ġuse": 885,
      "Ġused": 886,
      "ick": 887,
      "ĠâĢľ": 888,
      "(\\": 889,
      "Ġher": 890,
      "ype": 891,
      "ourt": 892,
      "ments": 893,
      "uc": 894,
      "Ġ201": 895,
      "ption": 896,
      "Ġpr": 897,
      "ruct": 898,
      "ĊĠĠĠĠĠĠĠĠĠĠĠĠĠĠĠ": 899,
      "'t": 900,
      "ĠĠĠĠĠĠĠĠĠĠĠĠĠĠĠĠĠĠĠĠĠĠĠĠĠĠĠĠĠĠĠĠĠĠĠĠĠĠĠĠĠĠĠĠĠĠĠĠĠĠĠĠĠĠĠĠĠĠĠĠĠĠĠĠ": 901,
      "Ġra": 902,
      "Ġnum": 903,
      "Ġusing": 904,
      "Ġac": 905,
      "ict": 906,
      "Ġyear": 907,
      "iel": 908,
      "Ġfunction": 909,
      "Ġclass": 910,
      "ateg": 911,
      "ix": 912,
      "Ġinclud": 913,
      "Ġafter": 914,
      "ms": 915,
      "elf": 916,
      "]{": 917,
      "Ġdist": 918,
      "les": 919,
      "Ġshow": 920,
      "Ġrem": 921,
      "14": 922,
      "13": 923,
      "Ġspec": 924,
      "St": 925,
      "15": 926,
      "Ġthen": 927,
      "cal": 928,
      "ĊĠĠĠĠĠ": 929,
      "tern": 930,
      "err": 931,
      "Ġlike": 932,
      "ered": 933,
      "ange": 934,
      "Ġfact": 935,
      "Ġpe": 936,
      "Ġatt": 937,
      "ible": 938,
      "Ġfollow": 939,
      "16": 940,
      "ER": 941,
      "](#": 942,
      "Ġsupp": 943,
      "ox": 944,
      "Ġsystem": 945,
      "Ġcor": 946,
      "ident": 947,
      "row": 948,
      "ise": 949,
      "als": 950,
      "Ġsur": 951,
      "Ġsim": 952,
      "aw": 953,
      "()": 954,
      "ues": 955,
      "enc": 956,
      "Ġprob": 957,
      "Ġrequ": 958,
      "ined": 959,
      "to": 960,
      "_{\\": 961,
      "ons": 962,
      "ious": 963,
      "Ġhow": 964,
      "],": 965,
      "Ġpol": 966,
      "Ġneed": 967,
      "ient": 968,
      "ield": 969,
      "frac": 970,
      "ever": 971,
      "its": 972,
      "Ġtra": 973,
      "pos": 974,
      "ax": 975,
      "ym": 976,
      "Ġconst": 977,
      "Ġwhat": 978,
      "Ġthem": 979,
      "Ġ.": 980,
      "inal": 981,
      "ram": 982,
      "Ġgener": 983,
      "Ġinf": 984,
      "ures": 985,
      "ics": 986,
      "nce": 987,
      "ited": 988,
      "\">": 989,
      "hen": 990,
      "put": 991,
      "duct": 992,
      "Ġeffect": 993,
      "ins": 994,
      "ract": 995,
      "uring": 996,
      "Ġdifferent": 997,
      "Ġpati": 998,
      "ator": 999,
      "rough": 1000,
      "rm": 1001,
      "Ġcould": 1002,
      "ublic": 1003,
      "oy": 1004,
      "ized": 1005,
      "Ġbl": 1006,
      "Ġext": 1007,
      "Ġeach": 1008,
      "Ġinst": 1009,
      "]\\]": 1010,
      "ĊĠĠĠĠĠĠĠĠĠĠĠĠĠĠĠĠ": 1011,
      "li": 1012,
      "$\\": 1013,
      "Ġanal": 1014,
      "sp": 1015,
      "text": 1016,
      "ough": 1017,
      "ethod": 1018,
      "Ġgroup": 1019,
      "25": 1020,
      "rit": 1021,
      "âĢī": 1022,
      "18": 1023,
      "Ġjust": 1024,
      "Ġchar": 1025,
      "ning": 1026,
      "ng": 1027,
      "ĠUn": 1028,
      "ull": 1029,
      "Ġtest": 1030,
      "Ġhigh": 1031,
      "))": 1032,
      "->": 1033,
      "val": 1034,
      "yp": 1035,
      "hes": 1036,
      "Ġshe": 1037,
      "ically": 1038,
      "]{}": 1039,
      "}{": 1040,
      "IN": 1041,
      "Ġcase": 1042,
      "Ġsm": 1043,
      "upp": 1044,
      "ade": 1045,
      "17": 1046,
      "Ġshould": 1047,
      "ities": 1048,
      "Ġref": 1049,
      "Ġincre": 1050,
      "set": 1051,
      "sc": 1052,
      "Ġ200": 1053,
      "Ġwell": 1054,
      "imes": 1055,
      "ants": 1056,
      "Ġ:": 1057,
      "ower": 1058,
      "Ġend": 1059,
      "Ġvari": 1060,
      "Ġmost": 1061,
      "Ġreturn": 1062,
      "ĠSe": 1063,
      "28": 1064,
      "ute": 1065,
      "Ġ\\[[@": 1066,
      "****": 1067,
      "Ġthrough": 1068,
      "vent": 1069,
      "Ġent": 1070,
      "Ġ@": 1071,
      "par": 1072,
      "ĠHe": 1073,
      "rol": 1074,
      "Ġpar": 1075,
      "cond": 1076,
      "ature": 1077,
      "uch": 1078,
      "ople": 1079,
      "aint": 1080,
      "Ġpartic": 1081,
      ",\\": 1082,
      "oci": 1083,
      "Ġbecause": 1084,
      "Ġdi": 1085,
      "left": 1086,
      "ON": 1087,
      "yl": 1088,
      "ases": 1089,
      "ctions": 1090,
      "ategory": 1091,
      "Ġcur": 1092,
      "ample": 1093,
      "let": 1094,
      "Ġsee": 1095,
      "Ġdid": 1096,
      "Ġ|": 1097,
      "32": 1098,
      "Ġadd": 1099,
      "of": 1100,
      "mathb": 1101,
      "sh": 1102,
      "201": 1103,
      "Ã¤": 1104,
      "ational": 1105,
      "Ġfl": 1106,
      "cept": 1107,
      "AT": 1108,
      "$.": 1109,
      "Ġmodel": 1110,
      "Ġloc": 1111,
      "ool": 1112,
      "Ġap": 1113,
      "Ġnumber": 1114,
      "$,": 1115,
      "ines": 1116,
      "ily": 1117,
      "Ġboth": 1118,
      "30": 1119,
      "Ġsame": 1120,
      "Ġaut": 1121,
      "ĠLet": 1122,
      "Ġx": 1123,
      "ages": 1124,
      "eng": 1125,
      "velop": 1126,
      "ck": 1127,
      "Ġcells": 1128,
      "Ġappro": 1129,
      "Ġknow": 1130,
      "over": 1131,
      "Th": 1132,
      "oid": 1133,
      "Ġdoes": 1134,
      "ression": 1135,
      "Ġstate": 1136,
      "Ġpresent": 1137,
      "arch": 1138,
      ".\"": 1139,
      "50": 1140,
      "wn": 1141,
      "Ġstudy": 1142,
      "Ġmin": 1143,
      "rent": 1144,
      "round": 1145,
      "Ġfil": 1146,
      "24": 1147,
      "pr": 1148,
      "pend": 1149,
      "ret": 1150,
      "Ġsaid": 1151,
      "ively": 1152,
      "Ġback": 1153,
      "Ġmed": 1154,
      "cent": 1155,
      "CR": 1156,
      "ward": 1157,
      "other": 1158,
      "Ġfound": 1159,
      "atic": 1160,
      "igned": 1161,
      "Ġsol": 1162,
      "ified": 1163,
      "Ġmat": 1164,
      "app": 1165,
      "Ġfind": 1166,
      "irect": 1167,
      "Ġpoint": 1168,
      "Ġprocess": 1169,
      "Ġtri": 1170,
      "line": 1171,
      "eta": 1172,
      "ray": 1173,
      "Ġz": 1174,
      "ew": 1175,
      "arg": 1176,
      "ince": 1177,
      "Ġ/": 1178,
      "Ġmethod": 1179,
      "cul": 1180,
      "erg": 1181,
      "NA": 1182,
      "Ġmem": 1183,
      "Ġexper": 1184,
      "ST": 1185,
      "Ġagain": 1186,
      "read": 1187,
      "Ġet": 1188,
      "ful": 1189,
      "min": 1190,
      "ared": 1191,
      "\":": 1192,
      "Ġvalue": 1193,
      "ved": 1194,
      "Ġlevel": 1195,
      "Ġcourt": 1196,
      "Ġhim": 1197,
      "formation": 1198,
      "ĠCom": 1199,
      "Ġke": 1200,
      "ained": 1201,
      "Ġser": 1202,
      "Ġpatients": 1203,
      "Ġright": 1204,
      "\\[": 1205,
      "Ġ//": 1206,
      "lement": 1207,
      "Ġmon": 1208,
      "Ġpeople": 1209,
      "Ġel": 1210,
      "Category": 1211,
      "led": 1212,
      "::": 1213,
      "ood": 1214,
      "mer": 1215,
      "Ġest": 1216,
      "ĠFor": 1217,
      "amb": 1218,
      "AR": 1219,
      "tr": 1220,
      "Ġcar": 1221,
      "ann": 1222,
      "fore": 1223,
      "io": 1224,
      "ĠÂ": 1225,
      "air": 1226,
      "Ġequ": 1227,
      "Ġrep": 1228,
      "rt": 1229,
      "Ġrespon": 1230,
      "ument": 1231,
      "Ġbu": 1232,
      "ization": 1233,
      "Ġlong": 1234,
      "Ġnon": 1235,
      "ran": 1236,
      "view": 1237,
      "Ġperform": 1238,
      "ole": 1239,
      "pha": 1240,
      "Ġcall": 1241,
      "Ġthose": 1242,
      "Ġeven": 1243,
      "Ġterm": 1244,
      "ired": 1245,
      "23": 1246,
      "(-": 1247,
      "Ġvery": 1248,
      "ices": 1249,
      "...": 1250,
      "abel": 1251,
      "://": 1252,
      "Ġdec": 1253,
      "Ġmake": 1254,
      "cer": 1255,
      "Ġdevelop": 1256,
      "Ġant": 1257,
      "Ġop": 1258,
      "ense": 1259,
      "Ġgiv": 1260,
      "ĊĊĠĠĠ": 1261,
      "str": 1262,
      "ason": 1263,
      "Ġorder": 1264,
      "da": 1265,
      "Ġsecond": 1266,
      "Fig": 1267,
      "Ġpers": 1268,
      "Ġbel": 1269,
      "ting": 1270,
      "ving": 1271,
      "Ġstr": 1272,
      "Ġyears": 1273,
      "ĠPro": 1274,
      "raph": 1275,
      "Ġactiv": 1276,
      "80": 1277,
      "',": 1278,
      "Ġmany": 1279,
      "ven": 1280,
      "ren": 1281,
      "cri": 1282,
      "ale": 1283,
      "64": 1284,
      "Ġsignific": 1285,
      "ody": 1286,
      "Ġway": 1287,
      "Ġbefore": 1288,
      "Ġprovid": 1289,
      "Ġins": 1290,
      "Ġbeing": 1291,
      "ality": 1292,
      "Ġche": 1293,
      "ron": 1294,
      "Ġerr": 1295,
      "Ġconsid": 1296,
      "Ġevery": 1297,
      "ĠAl": 1298,
      "22": 1299,
      "}(": 1300,
      "Ġplay": 1301,
      "Ġdisc": 1302,
      "Ġcre": 1303,
      "Ġprog": 1304,
      ")\\": 1305,
      "ision": 1306,
      "Ã©": 1307,
      "ability": 1308,
      "ential": 1309,
      "Ġduring": 1310,
      "Ġread": 1311,
      "alth": 1312,
      "200": 1313,
      "mathcal": 1314,
      "ency": 1315,
      "ysis": 1316,
      "Ġwhile": 1317,
      "IT": 1318,
      "ife": 1319,
      "ness": 1320,
      "ism": 1321,
      "ave": 1322,
      "Ġsupport": 1323,
      "work": 1324,
      "Ġhere": 1325,
      "Ġline": 1326,
      "Ġwithout": 1327,
      "ulation": 1328,
      "duced": 1329,
      "acter": 1330,
      "irc": 1331,
      "40": 1332,
      "name": 1333,
      "Ġposs": 1334,
      "OR": 1335,
      "ond": 1336,
      "Ġnow": 1337,
      "ĠHow": 1338,
      "ify": 1339,
      "serv": 1340,
      "0000": 1341,
      "---": 1342,
      "def": 1343,
      "Let": 1344,
      "Ġ15": 1345,
      "Ġmeas": 1346,
      "Ġthree": 1347,
      "EN": 1348,
      "alpha": 1349,
      "Ġserv": 1350,
      "ES": 1351,
      "Ġtype": 1352,
      "99": 1353,
      "(\"": 1354,
      "Ġ18": 1355,
      "Ġreport": 1356,
      "Ġwant": 1357,
      "Ġmade": 1358,
      "Ã¥": 1359,
      "].": 1360,
      "ars": 1361,
      "ĠÎ": 1362,
      "Ġprote": 1363,
      "Ġu": 1364,
      "Ġ12": 1365,
      "ĠĠĠĠĠĠĠĠĠĠĠĠĠĠĠĠĠĠĠĠĠĠĠĠ": 1366,
      "Ġpublic": 1367,
      "Ġoper": 1368,
      "ĠAs": 1369,
      "idence": 1370,
      "ĠRe": 1371,
      "Ġproper": 1372,
      "med": 1373,
      "Ġwor": 1374,
      "ns": 1375,
      "Ġlook": 1376,
      "Ġav": 1377,
      "Ġresults": 1378,
      "rict": 1379,
      "Ġmet": 1380,
      "ash": 1381,
      "Ġsignificant": 1382,
      "Ġgu": 1383,
      "agn": 1384,
      "Ġcontrol": 1385,
      "itive": 1386,
      "arly": 1387,
      "Ġ20": 1388,
      "ral": 1389,
      "not": 1390,
      "ource": 1391,
      "gan": 1392,
      "ĠIf": 1393,
      "ivid": 1394,
      "any": 1395,
      "urther": 1396,
      "Ġpri": 1397,
      "ots": 1398,
      "Ġelect": 1399,
      "Ġhel": 1400,
      "ually": 1401,
      "Ġname": 1402,
      "ement": 1403,
      "Ġsmall": 1404,
      "ner": 1405,
      "60": 1406,
      "aking": 1407,
      "]\\].": 1408,
      "Ġconf": 1409,
      "tt": 1410,
      "gg": 1411,
      "Ġmult": 1412,
      "^{\\": 1413,
      "Ġdeterm": 1414,
      "Ġstruct": 1415,
      "33": 1416,
      "Ġdev": 1417,
      "ration": 1418,
      "ention": 1419,
      "aterial": 1420,
      "chn": 1421,
      "way": 1422,
      "ĠAn": 1423,
      "lem": 1424,
      "ected": 1425,
      "What": 1426,
      "Ġhand": 1427,
      "ists": 1428,
      "Ġgood": 1429,
      "yt": 1430,
      "yn": 1431,
      "Ġimport": 1432,
      "Ġstart": 1433,
      "Ġappe": 1434,
      "Ġinformation": 1435,
      "Ġ{#": 1436,
      "CT": 1437,
      "gen": 1438,
      "ĠâĢĵ": 1439,
      "ĊĠĠ": 1440,
      "ination": 1441,
      "ton": 1442,
      "27": 1443,
      "We": 1444,
      "Ġdon": 1445,
      "ĠÐ": 1446,
      "Ġident": 1447,
      "AL": 1448,
      "Ġfollowing": 1449,
      "Ġmust": 1450,
      "erest": 1451,
      "Ġdown": 1452,
      "ery": 1453,
      "================": 1454,
      "uss": 1455,
      "aim": 1456,
      "Ġ$$\\": 1457,
      "Ġcondition": 1458,
      "me": 1459,
      "Ġpur": 1460,
      "til": 1461,
      "ium": 1462,
      "miss": 1463,
      "Ġcount": 1464,
      "ww": 1465,
      "ml": 1466,
      "Ġmuch": 1467,
      "ĠX": 1468,
      "35": 1469,
      "ology": 1470,
      "for": 1471,
      "Ex": 1472,
      "rel": 1473,
      "ĠQ": 1474,
      "Ġdirect": 1475,
      "It": 1476,
      "Ġlim": 1477,
      "cial": 1478,
      "face": 1479,
      "Ġown": 1480,
      "Ġtreat": 1481,
      "ional": 1482,
      "ho": 1483,
      "Ġ**": 1484,
      "duction": 1485,
      "Ġpost": 1486,
      "vious": 1487,
      "Ġ_": 1488,
      "ank": 1489,
      "ambda": 1490,
      "elta": 1491,
      "part": 1492,
      "ãģ": 1493,
      "05": 1494,
      "amet": 1495,
      "Ġwithin": 1496,
      "ters": 1497,
      "ather": 1498,
      "Ġaddition": 1499,
      "Ġstat": 1500,
      "Ġed": 1501,
      "ackage": 1502,
      "arge": 1503,
      "ished": 1504,
      "Ġcent": 1505,
      "34": 1506,
      "crib": 1507,
      "amp": 1508,
      "Ġart": 1509,
      "oh": 1510,
      "âĪ": 1511,
      "ross": 1512,
      "Ġtem": 1513,
      "Ġexpl": 1514,
      "Ġaff": 1515,
      "htt": 1516,
      "ier": 1517,
      "resent": 1518,
      "Ġcle": 1519,
      "man": 1520,
      "Ġ*/": 1521,
      "____": 1522,
      "lex": 1523,
      "ior": 1524,
      "mb": 1525,
      "sec": 1526,
      "26": 1527,
      "Ġiss": 1528,
      "Ġrespect": 1529,
      "ule": 1530,
      "29": 1531,
      "SE": 1532,
      "Ġcou": 1533,
      "day": 1534,
      "Ġstand": 1535,
      "be": 1536,
      "inf": 1537,
      "hip": 1538,
      "amma": 1539,
      "aj": 1540,
      "Con": 1541,
      "Ġobserv": 1542,
      "Ġquest": 1543,
      "Ġassoci": 1544,
      "ains": 1545,
      "Ġfield": 1546,
      "less": 1547,
      "Ġ14": 1548,
      "$$": 1549,
      "Ġthink": 1550,
      "ural": 1551,
      "ording": 1552,
      "ived": 1553,
      "Ġlet": 1554,
      "ured": 1555,
      "Ġlead": 1556,
      "alcul": 1557,
      "ĠHowever": 1558,
      "ead": 1559,
      "Ġanalysis": 1560,
      "AN": 1561,
      "ouse": 1562,
      "Ġrun": 1563,
      "Ġrece": 1564,
      "ection": 1565,
      "Ġdem": 1566,
      "Ġ16": 1567,
      "ote": 1568,
      "Ġcurrent": 1569,
      "land": 1570,
      "Pro": 1571,
      "();": 1572,
      "ĊĠĠĠĠ": 1573,
      "atch": 1574,
      "Ġinc": 1575,
      "Ġexample": 1576,
      "Ġhelp": 1577,
      "ently": 1578,
      "icro": 1579,
      "37": 1580,
      "ane": 1581,
      "Ġobt": 1582,
      "Ġsing": 1583,
      "ength": 1584,
      "Ġfin": 1585,
      "Ġinde": 1586,
      "Ġchild": 1587,
      "21": 1588,
      "ĠZ": 1589,
      "iqu": 1590,
      "ĠAnd": 1591,
      "Ġallow": 1592,
      "ately": 1593,
      "Ġtyp": 1594,
      "Ġ{\\": 1595,
      "04": 1596,
      "Ġapplic": 1597,
      "38": 1598,
      "Ġocc": 1599,
      "Ġindic": 1600,
      "36": 1601,
      ")/": 1602,
      "label": 1603,
      "Ġperson": 1604,
      "Ġagainst": 1605,
      "Ġbased": 1606,
      "},": 1607,
      "Ġsom": 1608,
      "55": 1609,
      "ffic": 1610,
      "ets": 1611,
      "LE": 1612,
      "ĠDe": 1613,
      "mu": 1614,
      "rid": 1615,
      "Ġgiven": 1616,
      "Ġmot": 1617,
      "ploy": 1618,
      "Ġlaw": 1619,
      "}_": 1620,
      "hib": 1621,
      "Ġwr": 1622,
      "ivers": 1623,
      "ams": 1624,
      "ital": 1625,
      "pi": 1626,
      "mathbb": 1627,
      "Ġlow": 1628,
      "eral": 1629,
      "ee": 1630,
      "ĊĊĠ": 1631,
      "ience": 1632,
      "aining": 1633,
      "}^{": 1634,
      "ames": 1635,
      "Ġobject": 1636,
      "Ġinterest": 1637,
      "ribut": 1638,
      "Ġstill": 1639,
      "ik": 1640,
      "requ": 1641,
      "Ġbas": 1642,
      "vert": 1643,
      "Ð°": 1644,
      "Ġfam": 1645,
      "39": 1646,
      "reg": 1647,
      "Ġfile": 1648,
      "abl": 1649,
      "egin": 1650,
      "ĠNo": 1651,
      "Ġarg": 1652,
      "ury": 1653,
      "ves": 1654,
      "Ġdel": 1655,
      "Ġve": 1656,
      "Ġlast": 1657,
      "ither": 1658,
      "RE": 1659,
      "Ġ,": 1660,
      "âĢĵ": 1661,
      "####": 1662,
      "Ġcontin": 1663,
      "dict": 1664,
      "This": 1665,
      "pone": 1666,
      "Ġday": 1667,
      "Ġbi": 1668,
      "Ġhum": 1669,
      "ĠYou": 1670,
      "Ġopt": 1671,
      "ĠCon": 1672,
      "Ġlist": 1673,
      "oot": 1674,
      "bl": 1675,
      "Ġincluding": 1676,
      "erence": 1677,
      "Ġmark": 1678,
      "dd": 1679,
      "ID": 1680,
      "by": 1681,
      "Ġpot": 1682,
      "ification": 1683,
      "Ġchang": 1684,
      "ocument": 1685,
      "att": 1686,
      "igma": 1687,
      "lu": 1688,
      "Ġdescrib": 1689,
      "Ġrele": 1690,
      "here": 1691,
      "arm": 1692,
      "rap": 1693,
      "Ġhy": 1694,
      "=\\": 1695,
      "ĠNew": 1696,
      "Ġ17": 1697,
      "Ġsince": 1698,
      "Ġclaim": 1699,
      "âĪĴ": 1700,
      "Ġbre": 1701,
      "arget": 1702,
      "Ġrest": 1703,
      "ek": 1704,
      "Ġtechn": 1705,
      "arent": 1706,
      "Ġcare": 1707,
      "mun": 1708,
      "Ġcommon": 1709,
      "Ġlo": 1710,
      "alk": 1711,
      "rop": 1712,
      "Ġ199": 1713,
      "igh": 1714,
      "roll": 1715,
      "Ġimp": 1716,
      "Ġpower": 1717,
      "Ð¾": 1718,
      "ining": 1719,
      "Ġpass": 1720,
      "ah": 1721,
      "Ġpath": 1722,
      "Ġmean": 1723,
      "begin": 1724,
      "Ġgreat": 1725,
      "phi": 1726,
      "ott": 1727,
      "Ġvis": 1728,
      "els": 1729,
      "bers": 1730,
      ".âĢĿ": 1731,
      "Ġtake": 1732,
      "}_{": 1733,
      "ĠBut": 1734,
      "Ġreal": 1735,
      "Ġder": 1736,
      "AS": 1737,
      "ples": 1738,
      "plic": 1739,
      "az": 1740,
      "Ġ</": 1741,
      "IC": 1742,
      "Ġ#": 1743,
      "ger": 1744,
      "ably": 1745,
      "meric": 1746,
      "AC": 1747,
      "hor": 1748,
      "Ġtreatment": 1749,
      "Ġprogram": 1750,
      "Ġpop": 1751,
      "Ġparticular": 1752,
      "Ġsugg": 1753,
      "refore": 1754,
      "Ġsuggest": 1755,
      "Ġabove": 1756,
      "Ã¦": 1757,
      "action": 1758,
      "45": 1759,
      "bs": 1760,
      "Ġopen": 1761,
      "aligned": 1762,
      "opy": 1763,
      "Ġden": 1764,
      "ormal": 1765,
      "Ġcharacter": 1766,
      "ilar": 1767,
      "chool": 1768,
      "('": 1769,
      "ird": 1770,
      "var": 1771,
      "che": 1772,
      "Ġdr": 1773,
      "Ġgra": 1774,
      "Ġshown": 1775,
      "alse": 1776,
      "etic": 1777,
      "Ġless": 1778,
      "ware": 1779,
      "ĠCl": 1780,
      "Ġcommun": 1781,
      "version": 1782,
      "}$$": 1783,
      "Ġcap": 1784,
      ",\"": 1785,
      "lambda": 1786,
      "cont": 1787,
      "Ġhealth": 1788,
      "Ġproduct": 1789,
      "Ġanother": 1790,
      "Ġadv": 1791,
      "ĠPh": 1792,
      "di": 1793,
      "Ġexpression": 1794,
      "Ġevidence": 1795,
      "osed": 1796,
      "por": 1797,
      "Ġbro": 1798,
      "Ġsize": 1799,
      "Ðµ": 1800,
      "Ġinvest": 1801,
      "Ch": 1802,
      "lection": 1803,
      "imal": 1804,
      "ding": 1805,
      "nces": 1806,
      "Ġlarge": 1807,
      "88": 1808,
      "ED": 1809,
      "Ġself": 1810,
      "75": 1811,
      "ext": 1812,
      "70": 1813,
      "Ġ11": 1814,
      "akes": 1815,
      "Cl": 1816,
      "Ġdue": 1817,
      "ĠEx": 1818,
      "mat": 1819,
      "iness": 1820,
      "Ġlife": 1821,
      "ives": 1822,
      "Ġbeh": 1823,
      "44": 1824,
      "ij": 1825,
      "ety": 1826,
      "ering": 1827,
      "IS": 1828,
      "Ġrepresent": 1829,
      "ways": 1830,
      "Ġmight": 1831,
      "Ġwhether": 1832,
      "ault": 1833,
      "Ġsay": 1834,
      "Ġimpro": 1835,
      "Ġimportant": 1836,
      "stand": 1837,
      "oss": 1838,
      "69": 1839,
      "iod": 1840,
      "Ġ--": 1841,
      "ergy": 1842,
      "data": 1843,
      "qrt": 1844,
      "Ġfail": 1845,
      "********": 1846,
      "div": 1847,
      "-\\": 1848,
      "self": 1849,
      "ser": 1850,
      "cur": 1851,
      "Ġsl": 1852,
      "ccess": 1853,
      "];": 1854,
      "ene": 1855,
      "col": 1856,
      "equ": 1857,
      "ts": 1858,
      "Ġinvol": 1859,
      "ological": 1860,
      "Ġlight": 1861,
      "orn": 1862,
      "Ġprof": 1863,
      "ask": 1864,
      "Ġtot": 1865,
      "idth": 1866,
      "sum": 1867,
      "Ġ30": 1868,
      "isk": 1869,
      "ems": 1870,
      "roup": 1871,
      "Ġ!": 1872,
      "Ġavail": 1873,
      "ertain": 1874,
      "})": 1875,
      "play": 1876,
      "To": 1877,
      "Ġinit": 1878,
      "Ġfour": 1879,
      "ope": 1880,
      "Ġtop": 1881,
      "ble": 1882,
      "bar": 1883,
      "Ġproblem": 1884,
      "Ġsequ": 1885,
      "oper": 1886,
      "Ġtry": 1887,
      "Ġposition": 1888,
      "etwork": 1889,
      "Com": 1890,
      "Ġsk": 1891,
      "Ġbest": 1892,
      "ĠApp": 1893,
      "Ġla": 1894,
      "usion": 1895,
      "angle": 1896,
      "Ġchange": 1897,
      "Ġfr": 1898,
      "Ġplace": 1899,
      "Ġrecord": 1900,
      "ĠPl": 1901,
      "ĠWhat": 1902,
      "ĠCourt": 1903,
      "anc": 1904,
      "Ġ>": 1905,
      "Ġvol": 1906,
      "Ġprevious": 1907,
      "ised": 1908,
      "son": 1909,
      "Ġview": 1910,
      "return": 1911,
      "Ġsit": 1912,
      "Ġpossible": 1913,
      "Ġgr": 1914,
      "Ġ==": 1915,
      "}^": 1916,
      "ĠWh": 1917,
      "ividual": 1918,
      "Ġfurther": 1919,
      "Ġstudies": 1920,
      "Ġprot": 1921,
      "Ġ${\\": 1922,
      "ĠSh": 1923,
      "Ġvalues": 1924,
      "Ġerror": 1925,
      "leg": 1926,
      "Ġrese": 1927,
      "Ġsever": 1928,
      "Ġworld": 1929,
      "čĊ": 1930,
      "ĠĠĠĠĠĠĠĠĠĠĠ": 1931,
      "ĠOn": 1932,
      "100": 1933,
      "Ġhead": 1934,
      "uro": 1935,
      "iple": 1936,
      "Ġknown": 1937,
      "65": 1938,
      "Ġaround": 1939,
      "95": 1940,
      "Ġlocal": 1941,
      "ern": 1942,
      "ĠTo": 1943,
      "Ġsingle": 1944,
      "ĠThese": 1945,
      "omen": 1946,
      "ĠInd": 1947,
      "respon": 1948,
      "Ġes": 1949,
      "48": 1950,
      "Ġcode": 1951,
      "ĠIs": 1952,
      "arn": 1953,
      "Ġmonth": 1954,
      "Ġreason": 1955,
      "Ġsimilar": 1956,
      "itor": 1957,
      "67": 1958,
      "opt": 1959,
      "Ġbus": 1960,
      "Ġprovide": 1961,
      "inc": 1962,
      "ĠĠĠĠĠĠĠĠĠ": 1963,
      "\\_": 1964,
      "icle": 1965,
      "af": 1966,
      "Ġcirc": 1967,
      "HE": 1968,
      "AP": 1969,
      "ĠAll": 1970,
      "ĠThere": 1971,
      "ograph": 1972,
      "aps": 1973,
      "ended": 1974,
      "beta": 1975,
      "As": 1976,
      "Ġinte": 1977,
      "Ġleft": 1978,
      "usep": 1979,
      "ĠAmeric": 1980,
      "ittle": 1981,
      "vir": 1982,
      "Ġdri": 1983,
      "usepackage": 1984,
      "Ġparamet": 1985,
      "Ġmaterial": 1986,
      "Ġpotential": 1987,
      "Ġfew": 1988,
      "Ġdise": 1989,
      "Ġspecific": 1990,
      "table": 1991,
      "Ġhaving": 1992,
      "mathbf": 1993,
      "sub": 1994,
      "AA": 1995,
      "org": 1996,
      "Ġpa": 1997,
      "----------------------------------------------------------------": 1998,
      "cd": 1999,
      "ought": 2000,
      "....": 2001,
      "âĢľ": 2002,
      "Ġhigher": 2003,
      "Ġexpect": 2004,
      "Ġnext": 2005,
      "Ġeas": 2006,
      "eps": 2007,
      "mon": 2008,
      "Ġtrue": 2009,
      "ream": 2010,
      "Ġjud": 2011,
      "eb": 2012,
      "Ġmain": 2013,
      "_\\": 2014,
      "Ġ([@": 2015,
      "Ġcomb": 2016,
      "Ġleast": 2017,
      "Ġ([": 2018,
      "iment": 2019,
      "Ġdefend": 2020,
      "mod": 2021,
      "chan": 2022,
      "Ġgeneral": 2023,
      "^{-": 2024,
      "68": 2025,
      "ÑĤ": 2026,
      "though": 2027,
      "Ġsum": 2028,
      "Ġtre": 2029,
      "lected": 2030,
      "ances": 2031,
      "Ġgrow": 2032,
      "Ġbo": 2033,
      "90": 2034,
      "duce": 2035,
      "uppose": 2036,
      "Ġindividual": 2037,
      "Ġassociated": 2038,
      "gment": 2039,
      "ĠUnited": 2040,
      "aintiff": 2041,
      "Ġcases": 2042,
      "string": 2043,
      "Ġgl": 2044,
      "Name": 2045,
      "apt": 2046,
      "]).": 2047,
      "II": 2048,
      "bib": 2049,
      "Ġpat": 2050,
      "rain": 2051,
      "Ġhist": 2052,
      "Ġavailable": 2053,
      "back": 2054,
      "Ġreview": 2055,
      "nal": 2056,
      "):": 2057,
      "ĊĠĠĠĠĠĠĠĠĠ": 2058,
      "Ġ13": 2059,
      "Ã§": 2060,
      "Ġtrial": 2061,
      "Ġ25": 2062,
      "ume": 2063,
      "ĠThey": 2064,
      "Ġorig": 2065,
      "Ġtoo": 2066,
      "ĠSo": 2067,
      "Ġquestion": 2068,
      "ething": 2069,
      "Ġfree": 2070,
      "Ġemploy": 2071,
      "RO": 2072,
      "Ġlevels": 2073,
      "Ġphys": 2074,
      "ina": 2075,
      "Ġorgan": 2076,
      "Ġperiod": 2077,
      "Ġ100": 2078,
      "clude": 2079,
      "Ġold": 2080,
      "mm": 2081,
      "Ġeither": 2082,
      "ĠStates": 2083,
      "ivity": 2084,
      "ĠAd": 2085,
      "Ġbetter": 2086,
      "Ġstandard": 2087,
      "Ġleg": 2088,
      "aring": 2089,
      "aut": 2090,
      "ga": 2091,
      "Ġabs": 2092,
      "ajor": 2093,
      "Ġgre": 2094,
      "cle": 2095,
      "cript": 2096,
      "Ġ24": 2097,
      "eq": 2098,
      "Ġwater": 2099,
      "Ġconsider": 2100,
      "ribution": 2101,
      "77": 2102,
      "Ġhome": 2103,
      "Î±": 2104,
      "Ġtotal": 2105,
      "Ġdepend": 2106,
      "ĠRes": 2107,
      "Ġhuman": 2108,
      "Ġprom": 2109,
      "Ð¸": 2110,
      "Ġsubject": 2111,
      "Ġgover": 2112,
      "yle": 2113,
      "\"}).": 2114,
      "Ġrate": 2115,
      "Ġmus": 2116,
      "ET": 2117,
      "Ġseveral": 2118,
      "ĠĠĠĠĠĠĠĠĠĠĠĠĠĠĠĠĠĠĠĠĠĠĠĠĠĠĠĠĠĠĠĠĠĠĠĠĠĠĠĠĠĠĠĠĠĠĠĠĠĠĠĠĠĠĠĠĠĠĠĠĠĠĠĠĠĠĠĠĠĠĠĠĠĠĠĠĠĠĠĠĠĠĠĠĠĠĠĠĠĠĠĠĠĠĠĠĠĠĠĠĠĠĠĠĠĠĠĠĠĠĠĠĠĠĠĠĠĠĠĠĠĠĠĠĠĠĠĠ": 2119,
      "arrow": 2120,
      "ĠSc": 2121,
      "Ġmicro": 2122,
      "amples": 2123,
      "ends": 2124,
      "AM": 2125,
      "ctor": 2126,
      "ides": 2127,
      "ats": 2128,
      "'m": 2129,
      "sigma": 2130,
      "rix": 2131,
      "Id": 2132,
      "Ġreally": 2133,
      "mission": 2134,
      "Ġactivity": 2135,
      "Ġdays": 2136,
      "new": 2137,
      "itted": 2138,
      "LL": 2139,
      "osis": 2140,
      "ĊĠĠĠĠĠĠĠĠĠĠĠĠĠĠĠĠĠĠĠ": 2141,
      "Ġcompared": 2142,
      "add": 2143,
      "85": 2144,
      "co": 2145,
      "31": 2146,
      "Ġgoing": 2147,
      "ilon": 2148,
      "ten": 2149,
      "cription": 2150,
      "Ġprim": 2151,
      "Ġaction": 2152,
      "Ġarea": 2153,
      "ĠUS": 2154,
      "sequ": 2155,
      "sqrt": 2156,
      "ressed": 2157,
      "ison": 2158,
      "ev": 2159,
      "Ġ%": 2160,
      "ĠĊ": 2161,
      "Ġelse": 2162,
      "ĠÃ": 2163,
      "Ġoccur": 2164,
      "Type": 2165,
      "roid": 2166,
      "Ġdesign": 2167,
      "ung": 2168,
      "Ġkey": 2169,
      "ences": 2170,
      "itle": 2171,
      "Ġsuper": 2172,
      "Ġprotein": 2173,
      "Ġturn": 2174,
      "Ġgive": 2175,
      "{{\\": 2176,
      "Ġput": 2177,
      "ĠCol": 2178,
      "raw": 2179,
      "Ġexist": 2180,
      "Ġmov": 2181,
      "Ġtarget": 2182,
      "Ġ)": 2183,
      "Ġport": 2184,
      "ler": 2185,
      "Ġmass": 2186,
      "Ġobserved": 2187,
      "Ġenergy": 2188,
      "ustom": 2189,
      "Ġmeans": 2190,
      "uit": 2191,
      "Ġlay": 2192,
      "class": 2193,
      "String": 2194,
      "47": 2195,
      "pm": 2196,
      "ystem": 2197,
      "02": 2198,
      "ĠTr": 2199,
      "Ġsens": 2200,
      "Ġide": 2201,
      "Ġlittle": 2202,
      "osp": 2203,
      "olution": 2204,
      "Ġupon": 2205,
      "unc": 2206,
      "this": 2207,
      "Ġresponse": 2208,
      "Ġword": 2209,
      "sw": 2210,
      "Ġcr": 2211,
      "aces": 2212,
      "Ġcost": 2213,
      "thing": 2214,
      "key": 2215,
      "indow": 2216,
      "Ġneg": 2217,
      "Ġnever": 2218,
      "Ġaccess": 2219,
      "pri": 2220,
      "IG": 2221,
      "rr": 2222,
      "inter": 2223,
      "omet": 2224,
      "uff": 2225,
      "lob": 2226,
      "ception": 2227,
      "http": 2228,
      "Ġhapp": 2229,
      "Ġgroups": 2230,
      "nment": 2231,
      "gamma": 2232,
      "Ġrequired": 2233,
      "iversity": 2234,
      "Ġbelie": 2235,
      "Ġsw": 2236,
      "Ġtimes": 2237,
      "Ġsomething": 2238,
      "Res": 2239,
      "place": 2240,
      "Ġele": 2241,
      "49": 2242,
      "87": 2243,
      "89": 2244,
      "66": 2245,
      "09": 2246,
      "time": 2247,
      "ĠAt": 2248,
      "mathrm": 2249,
      "Ġflu": 2250,
      "Ġid": 2251,
      "ension": 2252,
      "ored": 2253,
      "Ġben": 2254,
      "uf": 2255,
      "Ġbuild": 2256,
      "Ġlower": 2257,
      "AD": 2258,
      "Ġside": 2259,
      "Ġcaus": 2260,
      "rack": 2261,
      "ĠAr": 2262,
      "Ġmeasure": 2263,
      "Ġmechan": 2264,
      "+\\": 2265,
      "mit": 2266,
      "ĊĊĠĠĠĠĠĠĠ": 2267,
      "Ġsurface": 2268,
      "For": 2269,
      "Ġproject": 2270,
      "Ġopp": 2271,
      "~~": 2272,
      "ibility": 2273,
      "ĠState": 2274,
      "ĠĠĠĠĠĠĠĠĠĠ": 2275,
      "ival": 2276,
      "Ġdom": 2277,
      "Ġrequire": 2278,
      "ogen": 2279,
      "An": 2280,
      "Ċĉĉĉ": 2281,
      "Ġinj": 2282,
      "Ġstring": 2283,
      "Ġcalled": 2284,
      "hy": 2285,
      "Ġage": 2286,
      "Ġconditions": 2287,
      "ÂłÂł": 2288,
      "Ġrange": 2289,
      "Ġeffects": 2290,
      "asing": 2291,
      "ores": 2292,
      "AG": 2293,
      "Ġreported": 2294,
      "Ġincreased": 2295,
      "Ġfamily": 2296,
      "Ġnetwork": 2297,
      "atory": 2298,
      "Ġcomput": 2299,
      "Ġcompon": 2300,
      "Ġmajor": 2301,
      "Ġ(*": 2302,
      "Ġsignal": 2303,
      "Ġhowever": 2304,
      "Ġq": 2305,
      "Ġeng": 2306,
      "Ġspace": 2307,
      "}{\\": 2308,
      "Ġcrit": 2309,
      "Ġterms": 2310,
      "Ġdiscuss": 2311,
      "Ġfrequ": 2312,
      "Ġfactors": 2313,
      "ape": 2314,
      "ION": 2315,
      "Ġperformed": 2316,
      "Ġlater": 2317,
      "atures": 2318,
      "Ġamount": 2319,
      "Ġdescribed": 2320,
      "alu": 2321,
      "Ġdevelopment": 2322,
      "rect": 2323,
      "$-": 2324,
      "ift": 2325,
      "ours": 2326,
      "Ġamong": 2327,
      "vate": 2328,
      "stit": 2329,
      "essage": 2330,
      "If": 2331,
      "Ġprovided": 2332,
      "Ġinvestig": 2333,
      "ables": 2334,
      "Ġuser": 2335,
      "verage": 2336,
      "ĠFig": 2337,
      "ensity": 2338,
      "Ġlik": 2339,
      "Ġclin": 2340,
      "CC": 2341,
      "Ġsat": 2342,
      "Ġ`": 2343,
      "Ġshort": 2344,
      "Ġimage": 2345,
      "DE": 2346,
      "iting": 2347,
      "Ġcalcul": 2348,
      "Ġinclude": 2349,
      "Ġvi": 2350,
      "ique": 2351,
      "Ġfull": 2352,
      "ising": 2353,
      "Ġstructure": 2354,
      "Ġable": 2355,
      "iving": 2356,
      "Ġphot": 2357,
      "Ġstrong": 2358,
      "empt": 2359,
      "\")": 2360,
      "Ġlog": 2361,
      "^\\": 2362,
      "viron": 2363,
      "ubl": 2364,
      "au": 2365,
      "Ġpay": 2366,
      "ava": 2367,
      "go": 2368,
      "Ġestim": 2369,
      "Tr": 2370,
      "Val": 2371,
      "ators": 2372,
      "ĠCo": 2373,
      "Ġquant": 2374,
      ")(": 2375,
      "ogn": 2376,
      "Ġpract": 2377,
      "Ġbook": 2378,
      "ĠShe": 2379,
      "Ġcorrespon": 2380,
      "ember": 2381,
      "Ġdecre": 2382,
      "lood": 2383,
      "%)": 2384,
      "ground": 2385,
      "Ġhard": 2386,
      "Ġcomplex": 2387,
      "Ġchildren": 2388,
      "Ġsection": 2389,
      "Ġmen": 2390,
      "Ġenc": 2391,
      "Ġ$(": 2392,
      "ey": 2393,
      "cular": 2394,
      "OT": 2395,
      "Ġconduct": 2396,
      "><": 2397,
      "rho": 2398,
      "acy": 2399,
      "Ġtemper": 2400,
      "gr": 2401,
      "Ph": 2402,
      "Ġplan": 2403,
      "Ġask": 2404,
      "verse": 2405,
      "Ġalways": 2406,
      "mp": 2407,
      "Ġobtained": 2408,
      "Ġcho": 2409,
      "ales": 2410,
      "Ġbody": 2411,
      "Ġcontent": 2412,
      "ney": 2413,
      "duc": 2414,
      "Ġincrease": 2415,
      "value": 2416,
      "aken": 2417,
      "log": 2418,
      ")*": 2419,
      "ling": 2420,
      "ush": 2421,
      "Ġdeg": 2422,
      "Ġfactor": 2423,
      "span": 2424,
      "],[@": 2425,
      "Ċĉĉĉĉ": 2426,
      "Ġvir": 2427,
      "Ġunderstand": 2428,
      "ued": 2429,
      "Ġrisk": 2430,
      "Al": 2431,
      "Ġalong": 2432,
      "Ġbusiness": 2433,
      "Ġuntil": 2434,
      "Ġnormal": 2435,
      "Ġsuccess": 2436,
      "------------": 2437,
      "Â±": 2438,
      "bo": 2439,
      "ĠSp": 2440,
      "Ġpo": 2441,
      "Ġthings": 2442,
      "Ġchanges": 2443,
      "no": 2444,
      "Ġfinal": 2445,
      "Ġnecess": 2446,
      "Figure": 2447,
      "List": 2448,
      "Ġcertain": 2449,
      "08": 2450,
      "Ġspect": 2451,
      "Ġevent": 2452,
      "Ġestabl": 2453,
      "Ġmultiple": 2454,
      "Ġpress": 2455,
      "Ġschool": 2456,
      "Ġmax": 2457,
      "ourse": 2458,
      "ries": 2459,
      "lete": 2460,
      "/*": 2461,
      "79": 2462,
      "Ġtext": 2463,
      "001": 2464,
      "ready": 2465,
      "ĊĠĠĠĠĠĠĠĠĠĠĠĠĠĠĠĠĠĠĠĠĠĠĠĠĠĠĠĠĠĠĠĠ": 2466,
      "aster": 2467,
      "uck": 2468,
      "Is": 2469,
      "Ġbig": 2470,
      "Ġcy": 2471,
      "utes": 2472,
      "Ġdisease": 2473,
      "wh": 2474,
      "umber": 2475,
      "ucle": 2476,
      "Ġhold": 2477,
      "Ġmanag": 2478,
      ",âĢĿ": 2479,
      "Ġevalu": 2480,
      "idd": 2481,
      "Ġep": 2482,
      "outh": 2483,
      "angu": 2484,
      "ĠSee": 2485,
      "Ġsepar": 2486,
      "UT": 2487,
      "ocial": 2488,
      "ties": 2489,
      "Ġsystems": 2490,
      "import": 2491,
      "ĠWhen": 2492,
      "Ġfac": 2493,
      "pec": 2494,
      "xi": 2495,
      "Ġ50": 2496,
      "Ġsent": 2497,
      "Ġconcent": 2498,
      "Ġrole": 2499,
      "date": 2500,
      "uration": 2501,
      "Ġsource": 2502,
      "*,": 2503,
      "big": 2504,
      "Ġparticip": 2505,
      "Ġoften": 2506,
      "Ġconn": 2507,
      "Ġcheck": 2508,
      "delta": 2509,
      "Ġmagn": 2510,
      "ixed": 2511,
      "Ġissue": 2512,
      "imum": 2513,
      "../": 2514,
      "Ð½": 2515,
      "Ġdevice": 2516,
      "alf": 2517,
      "MP": 2518,
      "Ġdetail": 2519,
      "Ġshowed": 2520,
      "struct": 2521,
      "theta": 2522,
      "load": 2523,
      "86": 2524,
      "Ġ=>": 2525,
      "Ġaccount": 2526,
      "Ġpositive": 2527,
      "Ġbound": 2528,
      "ocus": 2529,
      "istic": 2530,
      "td": 2531,
      "84": 2532,
      "Ġoffic": 2533,
      "Ġresearch": 2534,
      "fer": 2535,
      "dis": 2536,
      "atter": 2537,
      "Ġrespectively": 2538,
      "ister": 2539,
      "use": 2540,
      "orth": 2541,
      "Ġver": 2542,
      "Col": 2543,
      "ending": 2544,
      "ai": 2545,
      "ules": 2546,
      "03": 2547,
      "pendent": 2548,
      "nc": 2549,
      "Ġapplication": 2550,
      "Ġdefined": 2551,
      "Ġrelations": 2552,
      "ids": 2553,
      "Ġprior": 2554,
      "ici": 2555,
      "medi": 2556,
      "Ġlarg": 2557,
      "Ġgame": 2558,
      "dro": 2559,
      "tau": 2560,
      "itud": 2561,
      "ands": 2562,
      "Ġweek": 2563,
      "enn": 2564,
      "arc": 2565,
      "Ġcult": 2566,
      "des": 2567,
      "ources": 2568,
      "Ġrespons": 2569,
      "rs": 2570,
      "Ġsite": 2571,
      "ges": 2572,
      "ceed": 2573,
      "Ġcome": 2574,
      "Ġinitial": 2575,
      "Ġ\\\\": 2576,
      "07": 2577,
      "ĠÂ§": 2578,
      "Ġregard": 2579,
      "![": 2580,
      "UR": 2581,
      "Ġvoid": 2582,
      "fficient": 2583,
      "Ġvarious": 2584,
      "rem": 2585,
      "ibr": 2586,
      "42": 2587,
      "Ġsolution": 2588,
      "Ġmove": 2589,
      "Ġcannot": 2590,
      "ley": 2591,
      "omega": 2592,
      "ump": 2593,
      "ache": 2594,
      "ternal": 2595,
      "order": 2596,
      "Ġvar": 2597,
      "www": 2598,
      "Cont": 2599,
      "Ġdemon": 2600,
      "Ġrequest": 2601,
      "Ġcomplet": 2602,
      "></": 2603,
      "57": 2604,
      "}}\\": 2605,
      "Ġinhib": 2606,
      "iter": 2607,
      "Ġthird": 2608,
      "posed": 2609,
      "ĠCO": 2610,
      "SS": 2611,
      "orph": 2612,
      "ĠĠĠĠĠĠĠĠĠĠĠĠ": 2613,
      "AB": 2614,
      "ĠLe": 2615,
      "leq": 2616,
      "rist": 2617,
      "You": 2618,
      "Ġversion": 2619,
      "App": 2620,
      "ged": 2621,
      "Ġweight": 2622,
      "ino": 2623,
      "pecial": 2624,
      "cret": 2625,
      "Ġservice": 2626,
      "ruction": 2627,
      "Ġwon": 2628,
      "View": 2629,
      "ament": 2630,
      "ĠUniversity": 2631,
      "Ġimmun": 2632,
      "Ġdat": 2633,
      "partial": 2634,
      "position": 2635,
      "Ġwrit": 2636,
      "Ġfore": 2637,
      "Ġlimit": 2638,
      "Ġgot": 2639,
      "olic": 2640,
      "xim": 2641,
      "How": 2642,
      "vironment": 2643,
      "mber": 2644,
      "br": 2645,
      "ÑĢ": 2646,
      "46": 2647,
      "Ġpredict": 2648,
      "Ġbase": 2649,
      "Ġalready": 2650,
      "ĠĠĠĠĠĠĠĠĠĠĠĠĠ": 2651,
      "Ġsignificantly": 2652,
      "Ġdone": 2653,
      "Ġfra": 2654,
      "lease": 2655,
      "bit": 2656,
      "199": 2657,
      "Ġfar": 2658,
      "Ġsoft": 2659,
      "CH": 2660,
      "Ġshows": 2661,
      "Â°": 2662,
      "Ã¡": 2663,
      "html": 2664,
      "ĠĠĠĠĠĠĠĠĠĠĠĠĠĠĠ": 2665,
      "ulated": 2666,
      "Ġaccording": 2667,
      "Ġdemonstr": 2668,
      "define": 2669,
      "oph": 2670,
      "Ġauthor": 2671,
      "////": 2672,
      "ony": 2673,
      "file": 2674,
      "Ġrelated": 2675,
      "test": 2676,
      "Ġconsidered": 2677,
      "times": 2678,
      "Ġflow": 2679,
      "Ġearly": 2680,
      "andom": 2681,
      "ĠOr": 2682,
      "Ġdou": 2683,
      "Ġpoints": 2684,
      "Ñģ": 2685,
      "comm": 2686,
      "ories": 2687,
      "}$,": 2688,
      "Ġproperty": 2689,
      "Ġapproach": 2690,
      "nu": 2691,
      "ript": 2692,
      "Ġconsist": 2693,
      "Ġexc": 2694,
      "Ġassess": 2695,
      "06": 2696,
      "kn": 2697,
      "âĢĶ": 2698,
      "Ġmut": 2699,
      "ds": 2700,
      "CO": 2701,
      ")}": 2702,
      "atus": 2703,
      "Ġbehav": 2704,
      "Data": 2705,
      "Ġcancer": 2706,
      "Ġcard": 2707,
      "Ġfeel": 2708,
      "inary": 2709,
      "Ġteam": 2710,
      "pped": 2711,
      "Ar": 2712,
      "59": 2713,
      "On": 2714,
      "iles": 2715,
      "Ġagre": 2716,
      "Ġbelow": 2717,
      "ĠThat": 2718,
      "Ġfri": 2719,
      "ÏĦ": 2720,
      "Ġsure": 2721,
      "Ġkeep": 2722,
      "side": 2723,
      "ĠGen": 2724,
      "minist": 2725,
      "Ġexam": 2726,
      "Ġair": 2727,
      "most": 2728,
      "])": 2729,
      "erences": 2730,
      "MS": 2731,
      "Ġhtt": 2732,
      "ession": 2733,
      "ero": 2734,
      "Un": 2735,
      "Ġmethods": 2736,
      "Ã¨": 2737,
      "43": 2738,
      "off": 2739,
      "Delta": 2740,
      "Ref": 2741,
      "Ġcourse": 2742,
      "infty": 2743,
      "unt": 2744,
      "lied": 2745,
      "olve": 2746,
      "}$.": 2747,
      "bt": 2748,
      "plement": 2749,
      "lim": 2750,
      "gin": 2751,
      "Ġtum": 2752,
      "uture": 2753,
      "Ġregion": 2754,
      "Ġwar": 2755,
      "Ġwhy": 2756,
      "omic": 2757,
      "etition": 2758,
      "\");": 2759,
      "Ġthough": 2760,
      "Ġwomen": 2761,
      "Ġmill": 2762,
      "Ġ$$": 2763,
      "ocal": 2764,
      "Ġincluded": 2765,
      "Ġut": 2766,
      "PE": 2767,
      "Ġstre": 2768,
      "abor": 2769,
      "inding": 2770,
      "Ġdrug": 2771,
      "umn": 2772,
      "Ġdig": 2773,
      "Table": 2774,
      "Ġbenef": 2775,
      "Ġlength": 2776,
      "Ġdefendant": 2777,
      "rec": 2778,
      "oney": 2779,
      "Ġthus": 2780,
      "oms": 2781,
      "Ġseen": 2782,
      "Ġspecial": 2783,
      "Ġred": 2784,
      "Ġgovernment": 2785,
      "Ġcreate": 2786,
      "Ġthought": 2787,
      "itch": 2788,
      "ĠThen": 2789,
      "ĠÂ±": 2790,
      "head": 2791,
      "56": 2792,
      "Ġworking": 2793,
      "ones": 2794,
      "aff": 2795,
      "Ġ(-": 2796,
      "Ġcause": 2797,
      "code": 2798,
      "bf": 2799,
      "see": 2800,
      "Ġtoget": 2801,
      "Ġtogether": 2802,
      "CL": 2803,
      "ried": 2804,
      "78": 2805,
      "chie": 2806,
      "Ġmaking": 2807,
      "ĠIN": 2808,
      "Ġbar": 2809,
      "Ġkind": 2810,
      "41": 2811,
      "Ġlot": 2812,
      "Ġmodels": 2813,
      "Ġmonths": 2814,
      ".)": 2815,
      "Ġpatient": 2816,
      "IP": 2817,
      "wards": 2818,
      "my": 2819,
      "const": 2820,
      "Ġir": 2821,
      "ught": 2822,
      "atal": 2823,
      "Ġadditional": 2824,
      "âĢĲ": 2825,
      "Ġperformance": 2826,
      "anguage": 2827,
      "ME": 2828,
      "icense": 2829,
      "ãĤ": 2830,
      "fe": 2831,
      "'ve": 2832,
      "ĠAfter": 2833,
      "Ġscre": 2834,
      "|\\": 2835,
      "Ġplaintiff": 2836,
      "OS": 2837,
      "________": 2838,
      "IR": 2839,
      "Ġdistribution": 2840,
      "Ġblood": 2841,
      "ĠMore": 2842,
      "Ġdam": 2843,
      "isf": 2844,
      "Ġenough": 2845,
      "yz": 2846,
      "ilit": 2847,
      "Ġanti": 2848,
      "ĠAN": 2849,
      "Ġloss": 2850,
      "Ġmotion": 2851,
      "Ġdeath": 2852,
      "irm": 2853,
      "odes": 2854,
      "icult": 2855,
      "onal": 2856,
      "Ġrather": 2857,
      "mitted": 2858,
      "Ġtemperature": 2859,
      "Ġinput": 2860,
      "FF": 2861,
      "state": 2862,
      "')": 2863,
      "Ġclear": 2864,
      "Ġcustom": 2865,
      "ynam": 2866,
      "lying": 2867,
      "Ġfalse": 2868,
      "Ġassum": 2869,
      "'re": 2870,
      "ĠEng": 2871,
      "Ġgene": 2872,
      "ortun": 2873,
      "Ġcross": 2874,
      "^*": 2875,
      "bject": 2876,
      "Ġtherefore": 2877,
      "Ġclinical": 2878,
      "Ġemb": 2879,
      "ros": 2880,
      "ĠBl": 2881,
      "ires": 2882,
      "Ġvia": 2883,
      "Ġadj": 2884,
      "ĠThus": 2885,
      "Ġfund": 2886,
      "83": 2887,
      "Ġfocus": 2888,
      "++": 2889,
      "pose": 2890,
      "atively": 2891,
      "ĠĠĠĠĠĠĠĠĠĠĠĠĠĠ": 2892,
      "Ġpaper": 2893,
      "âĢ¦": 2894,
      "ĠAmerican": 2895,
      "wise": 2896,
      "76": 2897,
      "Ġtiss": 2898,
      "Ġdifference": 2899,
      "Ġpick": 2900,
      "ĠAss": 2901,
      "Ġelement": 2902,
      "with": 2903,
      "čĊĠĠĠ": 2904,
      "ĠJoh": 2905,
      "Ġacross": 2906,
      "Ġ!=": 2907,
      "ĠCal": 2908,
      "Ġang": 2909,
      "Ġbit": 2910,
      "size": 2911,
      "bb": 2912,
      "Re": 2913,
      "ening": 2914,
      "width": 2915,
      "Ġlines": 2916,
      "Ġreceived": 2917,
      "\\*": 2918,
      "Ġpattern": 2919,
      "uk": 2920,
      "Ġdefin": 2921,
      "Ġgrowth": 2922,
      "Ġdisplay": 2923,
      "lor": 2924,
      "Ġansw": 2925,
      "Ġbecome": 2926,
      "Ġpref": 2927,
      "rim": 2928,
      "Ġintro": 2929,
      "but": 2930,
      "Ġlink": 2931,
      "Ġmaint": 2932,
      "do": 2933,
      "ĠOne": 2934,
      "lam": 2935,
      "vant": 2936,
      "Ġaway": 2937,
      "]{},": 2938,
      "rc": 2939,
      "hel": 2940,
      "But": 2941,
      "Ġaddress": 2942,
      "ols": 2943,
      "Ġsequence": 2944,
      "px": 2945,
      "Ġann": 2946,
      "quad": 2947,
      "ymb": 2948,
      "Ð¾Ð": 2949,
      "Î¹": 2950,
      "ideo": 2951,
      "nter": 2952,
      "IL": 2953,
      "Ġcompany": 2954,
      "TR": 2955,
      "erc": 2956,
      "Ġcompar": 2957,
      "Sh": 2958,
      "eting": 2959,
      "Ġimprove": 2960,
      "UN": 2961,
      "urs": 2962,
      "Ã¶": 2963,
      "iation": 2964,
      "ication": 2965,
      "IV": 2966,
      "Ġmatter": 2967,
      "resh": 2968,
      "Ġmembers": 2969,
      "Ġlikely": 2970,
      "ĠTe": 2971,
      "more": 2972,
      "Ġear": 2973,
      "ĠCan": 2974,
      "And": 2975,
      "ĠCD": 2976,
      "ĠâĢĶ": 2977,
      "ĠWith": 2978,
      "ii": 2979,
      "Ġphase": 2980,
      "mary": 2981,
      "Ġsample": 2982,
      "53": 2983,
      "list": 2984,
      "\\\\": 2985,
      "ĠMay": 2986,
      "Ġmom": 2987,
      "Ġmole": 2988,
      "word": 2989,
      "}(\\": 2990,
      "aced": 2991,
      "hem": 2992,
      "istance": 2993,
      "based": 2994,
      "Ġpercent": 2995,
      "Ġthing": 2996,
      "ober": 2997,
      "Ġviol": 2998,
      "Ġadded": 2999,
      "Ġsimple": 3000,
      "iver": 3001,
      "Ġill": 3002,
      "ega": 3003,
      "Ġcorrel": 3004,
      "Ġmar": 3005,
      "Ġclos": 3006,
      "omy": 3007,
      "Ġrelationship": 3008,
      "Ġremov": 3009,
      "He": 3010,
      "tilde": 3011,
      "Ġox": 3012,
      "Ġdifficult": 3013,
      "Ġradi": 3014,
      "izing": 3015,
      "Im": 3016,
      "Ġproced": 3017,
      "ball": 3018,
      "Ġpopulation": 3019,
      "Ġmiss": 3020,
      "Ġtaken": 3021,
      "Ġoutput": 3022,
      "Ġfunctions": 3023,
      "ĠAct": 3024,
      "Ġcorrect": 3025,
      "une": 3026,
      "Ġfive": 3027,
      "Ġonce": 3028,
      "Ġinflu": 3029,
      "Ġsubst": 3030,
      "Ġderiv": 3031,
      "ĠBy": 3032,
      "Ġnull": 3033,
      "Î¿": 3034,
      "Ġ21": 3035,
      "sy": 3036,
      "Ġseries": 3037,
      "aging": 3038,
      "82": 3039,
      "Ġbreak": 3040,
      "Ġachie": 3041,
      "Ġexperience": 3042,
      "ensure": 3043,
      "function": 3044,
      "ING": 3045,
      "ribute": 3046,
      "Ġdistrict": 3047,
      "rad": 3048,
      "Ġdep": 3049,
      "itten": 3050,
      "imens": 3051,
      "Ġdire": 3052,
      "Ġhom": 3053,
      "Ġprivate": 3054,
      "Ġblock": 3055,
      "Se": 3056,
      "PS": 3057,
      "Ġenvironment": 3058,
      "Ġacid": 3059,
      "Ġsamples": 3060,
      "Ġload": 3061,
      "Ġstates": 3062,
      "lobal": 3063,
      "ached": 3064,
      "Ġtable": 3065,
      "Ġdiv": 3066,
      "US": 3067,
      "document": 3068,
      "ĠCount": 3069,
      "Int": 3070,
      "Ġconcer": 3071,
      "Ġothers": 3072,
      "rapy": 3073,
      "Ġparameters": 3074,
      "74": 3075,
      "ledge": 3076,
      "Ġpolic": 3077,
      "Ġpan": 3078,
      "sl": 3079,
      "like": 3080,
      "https": 3081,
      "RNA": 3082,
      "ĠInt": 3083,
      "Ġexperiment": 3084,
      "Ġprevent": 3085,
      "eration": 3086,
      "ĠCar": 3087,
      "Ġdetermined": 3088,
      "Ġur": 3089,
      "Ġgenes": 3090,
      "Ġparent": 3091,
      "Ġtell": 3092,
      "]^": 3093,
      "ĠBe": 3094,
      "Ġcompl": 3095,
      "Ġimplement": 3096,
      "erred": 3097,
      "ĠâĢĺ": 3098,
      "Ġcontact": 3099,
      "Ġprovides": 3100,
      "include": 3101,
      "Ġcut": 3102,
      "Ġsocial": 3103,
      "dom": 3104,
      "uation": 3105,
      "Ġwhole": 3106,
      "Ġcoll": 3107,
      "Ġpast": 3108,
      "Ġdiagn": 3109,
      "Ġ},": 3110,
      "Ġinvention": 3111,
      "Ġprint": 3112,
      "72": 3113,
      "Ġnat": 3114,
      "54": 3115,
      "Err": 3116,
      "Ġyet": 3117,
      "net": 3118,
      "comes": 3119,
      "Ġdecl": 3120,
      "lementary": 3121,
      "oll": 3122,
      "Ġactually": 3123,
      ")$.": 3124,
      "81": 3125,
      "Ġpubl": 3126,
      "inks": 3127,
      "ulations": 3128,
      "istics": 3129,
      "sim": 3130,
      "Ġindex": 3131,
      "Ġlove": 3132,
      "array": 3133,
      "Ġspecies": 3134,
      "ĠMy": 3135,
      "73": 3136,
      "Ġyoung": 3137,
      "Ġquality": 3138,
      "alculate": 3139,
      "cm": 3140,
      "olds": 3141,
      "ae": 3142,
      "63": 3143,
      "Ġproduction": 3144,
      "ially": 3145,
      "Ġdoesn": 3146,
      "Ġ:=": 3147,
      "Ġmakes": 3148,
      "Ġproperties": 3149,
      "Ġpresence": 3150,
      "Ġfuture": 3151,
      "Ġjob": 3152,
      "Ġ29": 3153,
      "62": 3154,
      "itting": 3155,
      "ÃŃ": 3156,
      "Ġnucle": 3157,
      "lig": 3158,
      "\";": 3159,
      "ĠCor": 3160,
      "nection": 3161,
      "ĠDef": 3162,
      "clusion": 3163,
      "uments": 3164,
      "Ġpage": 3165,
      "year": 3166,
      "Value": 3167,
      "ply": 3168,
      "ĠPat": 3169,
      "ĠMed": 3170,
      "Ġhouse": 3171,
      "fl": 3172,
      "dev": 3173,
      "ches": 3174,
      "pre": 3175,
      "ĠCont": 3176,
      "ĠCent": 3177,
      "sm": 3178,
      "Ġinvolved": 3179,
      "Ġsatisf": 3180,
      "Ġservices": 3181,
      "ises": 3182,
      "where": 3183,
      "ilt": 3184,
      "ronic": 3185,
      "semb": 3186,
      "Ġconfig": 3187,
      "ened": 3188,
      "Ã³": 3189,
      "Ġchall": 3190,
      "Ġdecision": 3191,
      "Ġsus": 3192,
      "SD": 3193,
      "Ġque": 3194,
      "Ġaccept": 3195,
      "*~": 3196,
      "Ġentire": 3197,
      "Ġsem": 3198,
      "Ġrati": 3199,
      "OC": 3200,
      "anced": 3201,
      "urope": 3202,
      "Ġfollows": 3203,
      "Ġhistory": 3204,
      "Ġfilm": 3205,
      "Ġoriginal": 3206,
      "Ġtw": 3207,
      "ilities": 3208,
      "Ġpresented": 3209,
      "Ġmice": 3210,
      "Ġfav": 3211,
      "Ġfeatures": 3212,
      "Ġsearch": 3213,
      "Ġnecessary": 3214,
      "Om": 3215,
      "Ġ...": 3216,
      "ounds": 3217,
      "ĠInc": 3218,
      "Ġground": 3219,
      "Ġhyp": 3220,
      "lems": 3221,
      "Ġvalid": 3222,
      "Ġrandom": 3223,
      "Ġnear": 3224,
      "utions": 3225,
      "71": 3226,
      "ĠAm": 3227,
      "Ġcompos": 3228,
      "Ġ22": 3229,
      "cdot": 3230,
      "Ġhost": 3231,
      "cy": 3232,
      "pping": 3233,
      "Ġpolit": 3234,
      "52": 3235,
      "Ġdocument": 3236,
      "Ġ[*": 3237,
      "orld": 3238,
      "Ġheld": 3239,
      "CD": 3240,
      "ĠRep": 3241,
      "oad": 3242,
      "box": 3243,
      "58": 3244,
      "Ġreve": 3245,
      "rest": 3246,
      "\\])": 3247,
      "Ġchem": 3248,
      "plate": 3249,
      "There": 3250,
      "Ġsix": 3251,
      "Ġelements": 3252,
      "ĠTHE": 3253,
      "Ġord": 3254,
      "ĠMar": 3255,
      "Ġapproxim": 3256,
      "group": 3257,
      "astic": 3258,
      "Ġexec": 3259,
      "Ġmi": 3260,
      "Ġcontract": 3261,
      "Ġdetermine": 3262,
      "Ġadminist": 3263,
      "Ġ(\\[": 3264,
      "raft": 3265,
      "comp": 3266,
      "ĠMan": 3267,
      "ili": 3268,
      "trans": 3269,
      "Ġtypes": 3270,
      "oo": 3271,
      "Ġrad": 3272,
      "Ġ||": 3273,
      "Ġdoing": 3274,
      "51": 3275,
      "pecially": 3276,
      "Ġsex": 3277,
      "Ġaverage": 3278,
      "osph": 3279,
      "Ġshall": 3280,
      "Ġselect": 3281,
      "Ġey": 3282,
      "Pl": 3283,
      "ributed": 3284,
      "ĠSuppose": 3285,
      ")=": 3286,
      "ided": 3287,
      "ĠTherefore": 3288,
      "na": 3289,
      "ĠMe": 3290,
      "fra": 3291,
      "Ġidentified": 3292,
      "No": 3293,
      "actions": 3294,
      "ults": 3295,
      "Ġstep": 3296,
      "uly": 3297,
      "($": 3298,
      "inally": 3299,
      "Ġfood": 3300,
      "ĠIm": 3301,
      "ites": 3302,
      "ĠPar": 3303,
      "Ġexpected": 3304,
      "ĊĠĠĠĠĠĠ": 3305,
      "Ġcolor": 3306,
      "field": 3307,
      "icon": 3308,
      "}}$": 3309,
      "Ġclose": 3310,
      "Ġapplied": 3311,
      "Ġever": 3312,
      "Ġarray": 3313,
      "Ġproblems": 3314,
      "MA": 3315,
      "Ġcontext": 3316,
      "^[@": 3317,
      "âĢĥ": 3318,
      "rangle": 3319,
      "Ġsays": 3320,
      "operator": 3321,
      "Omega": 3322,
      "ĠDist": 3323,
      "Ġmoney": 3324,
      "Ġeffective": 3325,
      "\".": 3326,
      "Ġcopy": 3327,
      "itude": 3328,
      "ider": 3329,
      "ĠFurther": 3330,
      "ender": 3331,
      "aled": 3332,
      "Ġjudgment": 3333,
      "rite": 3334,
      ")$,": 3335,
      "Ġ28": 3336,
      "Ġrecogn": 3337,
      "ags": 3338,
      "IF": 3339,
      "fully": 3340,
      "ief": 3341,
      "Ġ40": 3342,
      "Ġland": 3343,
      "come": 3344,
      "ensive": 3345,
      "Ġappear": 3346,
      "psi": 3347,
      "ux": 3348,
      "Ġheart": 3349,
      "Ġprimary": 3350,
      "Ġcame": 3351,
      "Ġpressure": 3352,
      "Ġ&&": 3353,
      "uous": 3354,
      "ĠMr": 3355,
      "Ã£": 3356,
      "fn": 3357,
      "Ġpair": 3358,
      "ips": 3359,
      "Ġtax": 3360,
      "sk": 3361,
      "ĠOF": 3362,
      "Ġtook": 3363,
      "rast": 3364,
      "illed": 3365,
      "ĠDep": 3366,
      "Ġreduced": 3367,
      "Ġdensity": 3368,
      "Ġess": 3369,
      "roph": 3370,
      "ĠâĪĴ": 3371,
      "Ġproducts": 3372,
      "Ġseem": 3373,
      "Ġcal": 3374,
      "Ġcorresponding": 3375,
      "iments": 3376,
      "Ġworks": 3377,
      "OP": 3378,
      "Ġcontroll": 3379,
      "Wh": 3380,
      "que": 3381,
      "Ġevents": 3382,
      "61": 3383,
      "****************": 3384,
      "chi": 3385,
      "ccording": 3386,
      "Ġge": 3387,
      "oma": 3388,
      "Ġinstead": 3389,
      "));": 3390,
      "Ġcomplete": 3391,
      "ENT": 3392,
      "Ġseems": 3393,
      "Ġframe": 3394,
      "ĠBo": 3395,
      "All": 3396,
      "Ġneeds": 3397,
      "inde": 3398,
      "Ġwa": 3399,
      "ĊĠĠĠĠĠĠĠĠĠĠĠĠĠĠĠĠĠĠĠĠĠĠĠ": 3400,
      "By": 3401,
      "Ġsil": 3402,
      "Ġhalf": 3403,
      "gor": 3404,
      "param": 3405,
      "ops": 3406,
      "Ġconstant": 3407,
      "acc": 3408,
      "ederal": 3409,
      "Ġreference": 3410,
      "Ġantib": 3411,
      "Ġcommunity": 3412,
      "Ġ23": 3413,
      "oman": 3414,
      "ste": 3415,
      "Ġremain": 3416,
      "Ġdate": 3417,
      "isc": 3418,
      "IM": 3419,
      "Ġphysical": 3420,
      "Ġsoftware": 3421,
      "Ġhref": 3422,
      "annel": 3423,
      "Ġseason": 3424,
      "94": 3425,
      "With": 3426,
      "hing": 3427,
      "\\].": 3428,
      "Ġmemory": 3429,
      "Ġlayer": 3430,
      "Ġhydro": 3431,
      "Ġdivid": 3432,
      "rightarrow": 3433,
      "Îµ": 3434,
      "Ġconstit": 3435,
      "ĠDNA": 3436,
      "Ġattempt": 3437,
      "GF": 3438,
      "Ġrecent": 3439,
      "Ġcountry": 3440,
      "ĠNot": 3441,
      "Ġdeal": 3442,
      "Ġinstall": 3443,
      "body": 3444,
      "Ġalmost": 3445,
      "Ġneeded": 3446,
      "Ind": 3447,
      "Ġeduc": 3448,
      "Ġimpl": 3449,
      "Ġunit": 3450,
      "light": 3451,
      "ĠYork": 3452,
      "Ġdidn": 3453,
      "ĠCir": 3454,
      "rame": 3455,
      "}=": 3456,
      "Ġpreviously": 3457,
      "Ġtransfer": 3458,
      "ls": 3459,
      "nder": 3460,
      "ster": 3461,
      "point": 3462,
      "Ġ/*": 3463,
      "supp": 3464,
      "ĠChrist": 3465,
      "isms": 3466,
      "Ġdeveloped": 3467,
      "Ġobtain": 3468,
      "Ġbr": 3469,
      "ography": 3470,
      "arily": 3471,
      "ĠNational": 3472,
      "Ġimpact": 3473,
      "fs": 3474,
      "down": 3475,
      "Ġissues": 3476,
      "ethyl": 3477,
      "Set": 3478,
      "path": 3479,
      "Ġlimited": 3480,
      "'ll": 3481,
      "Î½": 3482,
      "Ġincreasing": 3483,
      "ĠSte": 3484,
      "Ġtrying": 3485,
      "Ġfib": 3486,
      "eter": 3487,
      "Ġmember": 3488,
      "hors": 3489,
      "Ġsal": 3490,
      "Ġparty": 3491,
      "){#": 3492,
      "eks": 3493,
      "ĠPhys": 3494,
      "max": 3495,
      "orem": 3496,
      "overed": 3497,
      "ĠĠĠĠĠĠĠĠĠĠĠĠĠĠĠĠĠĠĠ": 3498,
      "lation": 3499,
      "Ġstrateg": 3500,
      "Ġmeasured": 3501,
      "Ġmind": 3502,
      "ellant": 3503,
      "psilon": 3504,
      "Ġexact": 3505,
      "čĊĠ": 3506,
      "ĠMc": 3507,
      "Ġnight": 3508,
      "Ġlanguage": 3509,
      "length": 3510,
      "ogle": 3511,
      "Ġecon": 3512,
      "Ġmatrix": 3513,
      "print": 3514,
      "non": 3515,
      "Ed": 3516,
      "Ġlack": 3517,
      "cell": 3518,
      "Ġtheory": 3519,
      "Ġproteins": 3520,
      "Object": 3521,
      "Ġbasis": 3522,
      "umb": 3523,
      "SP": 3524,
      "/>": 3525,
      "ĠDr": 3526,
      "Suppose": 3527,
      "otic": 3528,
      "Ġdifferences": 3529,
      "Ġhours": 3530,
      "Ġgreater": 3531,
      "TE": 3532,
      "operatorname": 3533,
      "Gamma": 3534,
      "Ġface": 3535,
      "rial": 3536,
      "ĠII": 3537,
      "Ġdirectly": 3538,
      "gorith": 3539,
      "Ġstatus": 3540,
      "Ġautom": 3541,
      "Ġaccur": 3542,
      "Ġreplace": 3543,
      "ĠAg": 3544,
      "ula": 3545,
      "Ġ?": 3546,
      "Ġfem": 3547,
      "igen": 3548,
      "Ġitself": 3549,
      "ecause": 3550,
      "^+": 3551,
      "Ġsurv": 3552,
      "vare": 3553,
      "Ġtalk": 3554,
      "ĠPr": 3555,
      "vere": 3556,
      "Ġprinc": 3557,
      "Ġ\\<": 3558,
      "ï¼": 3559,
      "bor": 3560,
      "ese": 3561,
      "osure": 3562,
      "Ġwent": 3563,
      "icles": 3564,
      "anks": 3565,
      "Ġfig": 3566,
      "ĠDo": 3567,
      "Ġanalyz": 3568,
      "book": 3569,
      "Ġmap": 3570,
      "Ġ[**": 3571,
      "Ġgenerally": 3572,
      "Ġincludes": 3573,
      "och": 3574,
      "Ġ----------------": 3575,
      "urb": 3576,
      "Ġwords": 3577,
      "ÂĢ": 3578,
      "earch": 3579,
      "ytes": 3580,
      "Ġprec": 3581,
      "ospital": 3582,
      "ched": 3583,
      "bran": 3584,
      "Ġblack": 3585,
      "call": 3586,
      "top": 3587,
      "Ġroom": 3588,
      "Ġbegin": 3589,
      "artment": 3590,
      "Ġminutes": 3591,
      "Ġbelieve": 3592,
      "clus": 3593,
      "era": 3594,
      "Ġindependent": 3595,
      "den": 3596,
      "Ġhttp": 3597,
      "Ġdynam": 3598,
      "het": 3599,
      "ike": 3600,
      "Ġfoot": 3601,
      "So": 3602,
      "SC": 3603,
      "pret": 3604,
      "ĠEurope": 3605,
      "met": 3606,
      "Text": 3607,
      "Ġlooking": 3608,
      "Î¼": 3609,
      "At": 3610,
      "ML": 3611,
      "Ġclust": 3612,
      "ĠGe": 3613,
      "ĠSup": 3614,
      "ĠSince": 3615,
      "97": 3616,
      "ĠJan": 3617,
      "Ġexpress": 3618,
      "Ad": 3619,
      "Ġcontain": 3620,
      "Ġwritten": 3621,
      "Ġmach": 3622,
      "ãĢ": 3623,
      "sing": 3624,
      "96": 3625,
      "ills": 3626,
      "Ġespecially": 3627,
      "rown": 3628,
      "Ġwin": 3629,
      "varphi": 3630,
      "ĠOR": 3631,
      "Ġmor": 3632,
      "Ġmoment": 3633,
      "used": 3634,
      "Ġconv": 3635,
      "Ġknowledge": 3636,
      "Ġconstruct": 3637,
      "Ġfall": 3638,
      "Ġstatic": 3639,
      "Qu": 3640,
      "Ġpersonal": 3641,
      "lin": 3642,
      "Ġmedical": 3643,
      "ĠQu": 3644,
      "Ġimages": 3645,
      "js": 3646,
      "ename": 3647,
      "OD": 3648,
      "Get": 3649,
      "Ġsett": 3650,
      "Ġcreated": 3651,
      "Ġrot": 3652,
      "Ġalleg": 3653,
      "Ġconsum": 3654,
      "Ġactive": 3655,
      "varepsilon": 3656,
      "Ġjo": 3657,
      "Ġwrite": 3658,
      "Ġgas": 3659,
      "ha": 3660,
      "Ġbring": 3661,
      "ĠDes": 3662,
      "Ġderivative": 3663,
      "Ïĥ": 3664,
      "Ġ26": 3665,
      "script": 3666,
      "Ġdetect": 3667,
      "ĠId": 3668,
      "Mod": 3669,
      "Ġflo": 3670,
      "Ġrelative": 3671,
      "Ġenh": 3672,
      "ĠCity": 3673,
      "../../": 3674,
      "ying": 3675,
      "Ġstyle": 3676,
      "}^{\\": 3677,
      "Ġtold": 3678,
      "ĠĠĠĠĠĠĠĠĠĠĠĠĠĠĠĠĠ": 3679,
      "Ġfrequency": 3680,
      "vention": 3681,
      "Ġrecomm": 3682,
      "Ġmarket": 3683,
      "ĠAP": 3684,
      "Ġbackground": 3685,
      "Ġpain": 3686,
      "ging": 3687,
      "Ġetc": 3688,
      "urch": 3689,
      "ĠSystem": 3690,
      "oles": 3691,
      "amed": 3692,
      "Ġassert": 3693,
      "Ġgetting": 3694,
      "Ġnegative": 3695,
      "Ġaffect": 3696,
      "overline": 3697,
      "ĠReg": 3698,
      "Ġindust": 3699,
      "map": 3700,
      "ĠComp": 3701,
      "Ps": 3702,
      "*.": 3703,
      "ze": 3704,
      "ĠOur": 3705,
      "Ġveh": 3706,
      "bra": 3707,
      "ducing": 3708,
      "Ġmatch": 3709,
      "Ġareas": 3710,
      "ĠEn": 3711,
      "that": 3712,
      ".$$": 3713,
      "Ġdevices": 3714,
      "Ġclaims": 3715,
      "Ġidea": 3716,
      "ĠGod": 3717,
      "Ġsurg": 3718,
      "98": 3719,
      "ottom": 3720,
      "from": 3721,
      "Ġratio": 3722,
      "Ġstress": 3723,
      "epsilon": 3724,
      "Ġpack": 3725,
      "Ġstory": 3726,
      "Ġstra": 3727,
      "Ġprobably": 3728,
      "ission": 3729,
      "Ġdest": 3730,
      "ĠGu": 3731,
      "gra": 3732,
      "((": 3733,
      "CA": 3734,
      "urg": 3735,
      "ĠMin": 3736,
      "Ġ60": 3737,
      "aged": 3738,
      "Ġstudents": 3739,
      "ĠSim": 3740,
      "iddle": 3741,
      "Ġfront": 3742,
      "Ġcomponents": 3743,
      "exp": 3744,
      "Ġvideo": 3745,
      "Ġrights": 3746,
      "ien": 3747,
      "ager": 3748,
      "Ġforce": 3749,
      "Â¸": 3750,
      "------": 3751,
      "Ġbehavior": 3752,
      "Ġdirection": 3753,
      "ditional": 3754,
      "Ġselected": 3755,
      "My": 3756,
      "ĠĊĠĠĠĠĠĠĠĠĠĠĠĠĠĠĠ": 3757,
      "arning": 3758,
      "ients": 3759,
      "Par": 3760,
      "Ġisol": 3761,
      "Ġappropri": 3762,
      "Ġ27": 3763,
      "De": 3764,
      "Ġproposed": 3765,
      "irth": 3766,
      "term": 3767,
      "Ġfollowed": 3768,
      "When": 3769,
      "Ġtreated": 3770,
      "Ġcity": 3771,
      "hesis": 3772,
      "ĠJohn": 3773,
      "Ġmillion": 3774,
      "Ġtaking": 3775,
      "ana": 3776,
      "Ġsimply": 3777,
      "Ġcred": 3778,
      "rief": 3779,
      "iven": 3780,
      "ervice": 3781,
      "Ð°Ð": 3782,
      "ĠHere": 3783,
      "mpt": 3784,
      "Ġrelease": 3785,
      "Ġtraining": 3786,
      "isions": 3787,
      "Ġnatural": 3788,
      "ä¸": 3789,
      "iction": 3790,
      "pers": 3791,
      "Ġstarted": 3792,
      "elves": 3793,
      "Ġresid": 3794,
      "Ġsufficient": 3795,
      "cho": 3796,
      "mar": 3797,
      "Ġcry": 3798,
      "Ġsynt": 3799,
      "oding": 3800,
      "Ġtissue": 3801,
      "Ġaccom": 3802,
      "rant": 3803,
      "File": 3804,
      "Ġphen": 3805,
      "Ġnothing": 3806,
      "ĠCounty": 3807,
      "Ġhyper": 3808,
      "Ġparticularly": 3809,
      "Ġwebs": 3810,
      "void": 3811,
      "Ġanything": 3812,
      "Ġlearn": 3813,
      "Ġability": 3814,
      "Ġdegree": 3815,
      "Ġstim": 3816,
      "Ġvers": 3817,
      "Ġcomes": 3818,
      "Ġdefault": 3819,
      "OL": 3820,
      "Ġmedia": 3821,
      "ufact": 3822,
      "Ġavoid": 3823,
      "Ġda": 3824,
      "Ġperf": 3825,
      "Ġuint": 3826,
      "Ġaltern": 3827,
      "public": 3828,
      "uth": 3829,
      "Ġple": 3830,
      "Ġste": 3831,
      "ULL": 3832,
      "Ġquite": 3833,
      "ĠAp": 3834,
      "hers": 3835,
      "abase": 3836,
      "Ġgrant": 3837,
      "aches": 3838,
      "asons": 3839,
      "Â·": 3840,
      "uild": 3841,
      "lay": 3842,
      "Ġalthough": 3843,
      "Ġtoday": 3844,
      "ocation": 3845,
      "ĠString": 3846,
      "Ġeasy": 3847,
      "*]{}": 3848,
      "Ġâ": 3849,
      "Ġpret": 3850,
      "Ġful": 3851,
      "ĠPart": 3852,
      "}_{\\": 3853,
      "Ġgraph": 3854,
      "eline": 3855,
      "ĠLicense": 3856,
      "illi": 3857,
      ")-": 3858,
      "bi": 3859,
      "Ġoperation": 3860,
      "Ïģ": 3861,
      "Ġcyt": 3862,
      "Ġquestions": 3863,
      "Ġrecept": 3864,
      "TT": 3865,
      "Ġintegr": 3866,
      "bre": 3867,
      "Ġextra": 3868,
      "Ġcapac": 3869,
      "Ġcomponent": 3870,
      "cap": 3871,
      "Ġopin": 3872,
      "error": 3873,
      "\\'": 3874,
      "hest": 3875,
      "elling": 3876,
      "perty": 3877,
      "Ġband": 3878,
      "itation": 3879,
      "Ġlive": 3880,
      "link": 3881,
      "ada": 3882,
      "TH": 3883,
      "ĠIntern": 3884,
      "ards": 3885,
      "elt": 3886,
      "hood": 3887,
      "inated": 3888,
      "ener": 3889,
      "Ġlonger": 3890,
      "Ġ__": 3891,
      "Ġfindings": 3892,
      "Ġcontaining": 3893,
      "Ġargument": 3894,
      "Ġfeed": 3895,
      "Ġpolicy": 3896,
      "Ġfixed": 3897,
      "bon": 3898,
      "Ġ(\\": 3899,
      "ĠĠĠĠĠĠĠĠĠĠĠĠĠĠĠĠĠĠĠĠĠ": 3900,
      "user": 3901,
      "Ġnote": 3902,
      "Ġweeks": 3903,
      "ymbol": 3904,
      "Ġlarger": 3905,
      "Ġsubstant": 3906,
      "Ġdivided": 3907,
      "nsel": 3908,
      "Ġoption": 3909,
      "ĠST": 3910,
      "Ġstage": 3911,
      "\\,": 3912,
      "002": 3913,
      "Ġspeed": 3914,
      "Ġparameter": 3915,
      "ĠArt": 3916,
      "Ġgenerated": 3917,
      "Sec": 3918,
      "rote": 3919,
      "Ġandroid": 3920,
      "ishing": 3921,
      "Ġtitle": 3922,
      "Ġappeal": 3923,
      "================================": 3924,
      "Ġfeature": 3925,
      "Ġasked": 3926,
      "Ġmulti": 3927,
      "^{(": 3928,
      "93": 3929,
      "spec": 3930,
      "'d": 3931,
      "eful": 3932,
      "Ġround": 3933,
      "Ġpublished": 3934,
      "Ġstri": 3935,
      "Ġarticle": 3936,
      "apan": 3937,
      "Ġnumbers": 3938,
      "92": 3939,
      "Ġelectro": 3940,
      "Ġtumor": 3941,
      "Ġax": 3942,
      "Ġauthors": 3943,
      "opl": 3944,
      ".\\": 3945,
      "ĠGerm": 3946,
      "ĠAlthough": 3947,
      "ken": 3948,
      "======": 3949,
      "Ġscale": 3950,
      "Ġfun": 3951,
      "Error": 3952,
      "uary": 3953,
      "Ġidentify": 3954,
      "encies": 3955,
      "CP": 3956,
      "ĠĠĠĠĠĠĠĠĠĠĠĠĠĠĠĠĠĠ": 3957,
      "\"},": 3958,
      "Ġattack": 3959,
      ")^": 3960,
      "Ġanim": 3961,
      "ils": 3962,
      "Ġbad": 3963,
      "Ġmention": 3964,
      "CE": 3965,
      "rupt": 3966,
      "index": 3967,
      "ĠDistrict": 3968,
      "Ġhighly": 3969,
      "Ġonline": 3970,
      "Ġeffort": 3971,
      "Ġexcept": 3972,
      "Ġcontains": 3973,
      "Ġinstance": 3974,
      "Ġsense": 3975,
      "Ġeffic": 3976,
      "Ġproduced": 3977,
      "Ġinside": 3978,
      "lege": 3979,
      "ulate": 3980,
      "Ġbroad": 3981,
      "Ġusually": 3982,
      "Â¼": 3983,
      "Ġnature": 3984,
      "vey": 3985,
      "*-": 3986,
      "ibrary": 3987,
      "Ġproceed": 3988,
      "Def": 3989,
      "func": 3990,
      "Ġdouble": 3991,
      "lock": 3992,
      "ĠPer": 3993,
      "Ġplas": 3994,
      "rang": 3995,
      "efore": 3996,
      "Ġplayers": 3997,
      "inate": 3998,
      "Ġrow": 3999,
      "BS": 4000,
      "ĠFirst": 4001,
      "Ġengine": 4002,
      "Ġpurpose": 4003,
      "ãĥ": 4004,
      "Ġestablished": 4005,
      "Ġmode": 4006,
      "Ġrates": 4007,
      "};": 4008,
      "df": 4009,
      "su": 4010,
      "Ġrunning": 4011,
      "Or": 4012,
      "wide": 4013,
      "Ġnode": 4014,
      "Ġult": 4015,
      "aving": 4016,
      "Ġformer": 4017,
      "argin": 4018,
      "Ġalgorith": 4019,
      "Ġpractice": 4020,
      "orage": 4021,
      "ÏĢ": 4022,
      "}}(": 4023,
      "aves": 4024,
      "Ġdie": 4025,
      "Ġ2012": 4026,
      "Ġquick": 4027,
      "Ġconnect": 4028,
      "known": 4029,
      "Ġoutside": 4030,
      "Ġsites": 4031,
      "Ġuseful": 4032,
      "Ġrepe": 4033,
      "indows": 4034,
      "Ġrule": 4035,
      "izes": 4036,
      "Ġdiscl": 4037,
      "item": 4038,
      "Supp": 4039,
      "Ġexperiments": 4040,
      "Ġfavor": 4041,
      "Ġdistance": 4042,
      "ĠHar": 4043,
      "itro": 4044,
      "Ġwhose": 4045,
      "material": 4046,
      "ica": 4047,
      "unch": 4048,
      "Ġdesigned": 4049,
      "ental": 4050,
      "91": 4051,
      "otes": 4052,
      "ĠWhile": 4053,
      "gl": 4054,
      "now": 4055,
      "pper": 4056,
      "Ġanswer": 4057,
      "Ġbrain": 4058,
      "static": 4059,
      "Ġlocation": 4060,
      "bin": 4061,
      "Ġconcentration": 4062,
      "Ġmessage": 4063,
      "Ġexpressed": 4064,
      "vis": 4065,
      "ĠGo": 4066,
      "]$": 4067,
      "Ġsqu": 4068,
      "Sim": 4069,
      "Ġessential": 4070,
      "aneous": 4071,
      "Des": 4072,
      "section": 4073,
      "003": 4074,
      "Ġmusic": 4075,
      "Ġ^": 4076,
      "Ġpurch": 4077,
      "References": 4078,
      "Ġ/>": 4079,
      "().": 4080,
      "Ġmanagement": 4081,
      "Ġformation": 4082,
      "Ġagreement": 4083,
      "Ġlabel": 4084,
      "ffer": 4085,
      "005": 4086,
      "Ġimmedi": 4087,
      "active": 4088,
      "čĊč": 4089,
      "cast": 4090,
      "fo": 4091,
      "Ġcamp": 4092,
      "Ġfiles": 4093,
      "ptr": 4094,
      "Ġdraw": 4095,
      "Ġlinear": 4096,
      "obile": 4097,
      "msg": 4098,
      "Ġsuit": 4099,
      "ĠAug": 4100,
      "ĠOct": 4101,
      ")).": 4102,
      "Ġregular": 4103,
      "!!": 4104,
      "PR": 4105,
      "ĊĠĠĠĠĠĠĠĠĠĠĠĠĠ": 4106,
      "Ġwidth": 4107,
      "ĠNe": 4108,
      "Ġdim": 4109,
      "init": 4110,
      "Ġrequires": 4111,
      "Ġpie": 4112,
      "lib": 4113,
      "}}_": 4114,
      "ĠSm": 4115,
      "Ġvariable": 4116,
      "Ġlocated": 4117,
      "ĠJud": 4118,
      "ĠSer": 4119,
      "Ġbecame": 4120,
      "vec": 4121,
      "Ġformed": 4122,
      "ifically": 4123,
      "ĠPres": 4124,
      "older": 4125,
      "Ġhar": 4126,
      "Ġsomeone": 4127,
      "Ġprep": 4128,
      ")**": 4129,
      "pace": 4130,
      "ama": 4131,
      "EL": 4132,
      "Ġmanufact": 4133,
      "ĠAust": 4134,
      "wid": 4135,
      "['": 4136,
      "ĠWorld": 4137,
      "pid": 4138,
      "ĠSouth": 4139,
      "Ġvector": 4140,
      "ĠĠĠĠĠĠĠĠĠĠĠĠĠĠĠĠĠĠĠĠ": 4141,
      "ners": 4142,
      "imate": 4143,
      "uted": 4144,
      "Ġbox": 4145,
      "[^": 4146,
      "Ãĥ": 4147,
      "Ġwhite": 4148,
      "Ġbur": 4149,
      "gram": 4150,
      "Ġinterpret": 4151,
      "was": 4152,
      "Ġprime": 4153,
      "iet": 4154,
      "frak": 4155,
      "\\<": 4156,
      "langle": 4157,
      "oe": 4158,
      "ĠSch": 4159,
      "');": 4160,
      "Ġcaused": 4161,
      "aries": 4162,
      "Ġhor": 4163,
      "Cs": 4164,
      "Ġopportun": 4165,
      "pril": 4166,
      "Ġpoly": 4167,
      "lish": 4168,
      "Ġmis": 4169,
      "Ġacqu": 4170,
      "Ġdefinition": 4171,
      "EX": 4172,
      "atform": 4173,
      "Ġindividuals": 4174,
      "Ġ2013": 4175,
      "Ġnumer": 4176,
      "change": 4177,
      "ĠHis": 4178,
      "Ġproof": 4179,
      "pite": 4180,
      "Ġusers": 4181,
      "ĠÎ¼": 4182,
      "ĠEd": 4183,
      "Ġcharge": 4184,
      "tem": 4185,
      "Ġ;": 4186,
      "Ġbinding": 4187,
      "Ġaud": 4188,
      "lier": 4189,
      "pen": 4190,
      "Ġfailed": 4191,
      "Ġcover": 4192,
      "Ġfailure": 4193,
      "Ġliter": 4194,
      "Add": 4195,
      "ĠIS": 4196,
      "Ġ2010": 4197,
      "det": 4198,
      "ĠVal": 4199,
      "ancial": 4200,
      "PL": 4201,
      "True": 4202,
      "Ġcenter": 4203,
      "Ġwrong": 4204,
      "Le": 4205,
      "Ġconcentr": 4206,
      "Ġ(**": 4207,
      "ancy": 4208,
      "Ġfast": 4209,
      "ĠPol": 4210,
      "Ġrelevant": 4211,
      "Ġwall": 4212,
      "Ġwriting": 4213,
      "py": 4214,
      "oud": 4215,
      "ming": 4216,
      "Ġdefine": 4217,
      "reme": 4218,
      "Ġstatement": 4219,
      "Ġsupported": 4220,
      "geq": 4221,
      "ATE": 4222,
      "ube": 4223,
      "Key": 4224,
      "len": 4225,
      "Ġsche": 4226,
      "Ġweb": 4227,
      "Man": 4228,
      "NS": 4229,
      "la": 4230,
      "Ġfire": 4231,
      "Ġappropriate": 4232,
      "Ġcontrast": 4233,
      "iated": 4234,
      "dot": 4235,
      "Ġresulting": 4236,
      "CS": 4237,
      "Ġphosph": 4238,
      "Ġcentral": 4239,
      "Ġampl": 4240,
      "Ġglobal": 4241,
      "Ġunique": 4242,
      "Ġstreng": 4243,
      "Ġgives": 4244,
      "Time": 4245,
      "Ġ2014": 4246,
      "Ġbuilding": 4247,
      "Ġvs": 4248,
      "itors": 4249,
      "Ġserver": 4250,
      "Ġequal": 4251,
      "Ġallows": 4252,
      "Ġnil": 4253,
      "Ġ($": 4254,
      "Ġ\\,": 4255,
      "Ġdu": 4256,
      "ĠJune": 4257,
      "Ġsecur": 4258,
      "oke": 4259,
      "cules": 4260,
      "eff": 4261,
      "Ġrecently": 4262,
      "ocks": 4263,
      "Ġfiled": 4264,
      "Ġlinks": 4265,
      "atives": 4266,
      "Ġvolume": 4267,
      "Ġsubsequ": 4268,
      "\"><": 4269,
      "Ġheight": 4270,
      "Ġdetails": 4271,
      "Ġvan": 4272,
      "cale": 4273,
      "ĠMarch": 4274,
      "ĠRec": 4275,
      "Ġhope": 4276,
      "Ġinform": 4277,
      "00000000": 4278,
      "Ġexists": 4279,
      "En": 4280,
      "Ġslow": 4281,
      "Ġpict": 4282,
      "Ġshare": 4283,
      "Ġpolym": 4284,
      "Ġextract": 4285,
      "vision": 4286,
      "Ġprocesses": 4287,
      "Âº": 4288,
      "ĠAf": 4289,
      "mathfrak": 4290,
      "Ġpul": 4291,
      "Ġindicated": 4292,
      "State": 4293,
      "rum": 4294,
      "cember": 4295,
      "Ġ32": 4296,
      "Ġcompan": 4297,
      "Ġregions": 4298,
      "bum": 4299,
      "\\],": 4300,
      "Ġvariables": 4301,
      "ÐµÐ": 4302,
      "PD": 4303,
      "Ġbirth": 4304,
      "overy": 4305,
      "Ġprotect": 4306,
      "Ġwalk": 4307,
      "Ġapply": 4308,
      "rag": 4309,
      "FL": 4310,
      "ocol": 4311,
      "Ġorg": 4312,
      "hand": 4313,
      "Ġcircuit": 4314,
      "ĠPa": 4315,
      "Ġ<<": 4316,
      "Test": 4317,
      "Ġcircum": 4318,
      "######": 4319,
      "Ġdomain": 4320,
      "Ġmaximum": 4321,
      "Ġinteraction": 4322,
      "EM": 4323,
      "Ġ2011": 4324,
      "Ġrestrict": 4325,
      "ris": 4326,
      "pan": 4327,
      "Ġcomputer": 4328,
      "Ġadjust": 4329,
      "Ġmembran": 4330,
      "Ġtrack": 4331,
      "Ġlate": 4332,
      "ĠLa": 4333,
      "Ġjury": 4334,
      "Ġhighest": 4335,
      "Ġconnection": 4336,
      "Ġmagnetic": 4337,
      "ned": 4338,
      "Ġmaterials": 4339,
      "HO": 4340,
      ".[": 4341,
      "ĠNorth": 4342,
      "rier": 4343,
      "ague": 4344,
      "Ġsmaller": 4345,
      "Ġcurrently": 4346,
      "Ġoffer": 4347,
      "Ġmother": 4348,
      "char": 4349,
      "Ġvo": 4350,
      "Ġoverall": 4351,
      "Ġparts": 4352,
      "pling": 4353,
      "ham": 4354,
      "ĠJapan": 4355,
      "Ġtakes": 4356,
      "estern": 4357,
      "oz": 4358,
      "plit": 4359,
      "Ġinfection": 4360,
      "Class": 4361,
      "inct": 4362,
      "Ġyield": 4363,
      "Ġcalculated": 4364,
      "Ġexhib": 4365,
      "Ġnotice": 4366,
      "ĠSome": 4367,
      "Ġheav": 4368,
      "related": 4369,
      "Ġ);": 4370,
      "cos": 4371,
      "abled": 4372,
      "ded": 4373,
      "Ġapplications": 4374,
      "Ġequation": 4375,
      "base": 4376,
      "Ġforward": 4377,
      "erve": 4378,
      "ports": 4379,
      "Ġfit": 4380,
      "UL": 4381,
      "ees": 4382,
      "Ġwebsite": 4383,
      "Ġ2015": 4384,
      "arest": 4385,
      "Ġtim": 4386,
      "RI": 4387,
      "]:": 4388,
      "Ġdetected": 4389,
      "iring": 4390,
      "Ġcritical": 4391,
      "Ġreaction": 4392,
      "Ct": 4393,
      "Ġallowed": 4394,
      "andid": 4395,
      "Ġtherapy": 4396,
      "Ġmedium": 4397,
      "Ġinjury": 4398,
      "ĠStud": 4399,
      "MM": 4400,
      "Ġtele": 4401,
      "Ġconnected": 4402,
      "Ġten": 4403,
      "Ġstated": 4404,
      "Ġfinding": 4405,
      "\\!": 4406,
      "Ġmal": 4407,
      "cluded": 4408,
      "Ġfriend": 4409,
      "Ġstay": 4410,
      "Ġund": 4411,
      "Ġstatist": 4412,
      "PP": 4413,
      "Ġfunctional": 4414,
      "ĠMoreover": 4415,
      "ĠSept": 4416,
      "Ġscore": 4417,
      "ĠGeneral": 4418,
      "men": 4419,
      "style": 4420,
      "Ġmechanism": 4421,
      "Ġsort": 4422,
      "oun": 4423,
      "Ġtransition": 4424,
      "Exception": 4425,
      "Ġleading": 4426,
      "Ġanalys": 4427,
      "Â¯": 4428,
      "oring": 4429,
      "From": 4430,
      "asis": 4431,
      "joy": 4432,
      "erate": 4433,
      "ĠAT": 4434,
      "Ġmeet": 4435,
      "which": 4436,
      "appa": 4437,
      "New": 4438,
      "Ġmit": 4439,
      "ĠMod": 4440,
      "ridge": 4441,
      "Ġreduction": 4442,
      "ellow": 4443,
      "ĠSection": 4444,
      "irmed": 4445,
      "ĠData": 4446,
      "onic": 4447,
      "ĠAb": 4448,
      "Ġheat": 4449,
      "rate": 4450,
      "Ġpoor": 4451,
      "Ġ31": 4452,
      "Ġsaf": 4453,
      "Ġnovel": 4454,
      "Ġhot": 4455,
      "Ġaim": 4456,
      "oted": 4457,
      "Ġeverything": 4458,
      "Ġreach": 4459,
      "upper": 4460,
      "Ġ2016": 4461,
      "Ġsympt": 4462,
      "Ġtried": 4463,
      "ĠJanuary": 4464,
      "ldots": 4465,
      "},\\": 4466,
      "ĠJuly": 4467,
      "ÂłÂłÂłÂł": 4468,
      "Ġexerc": 4469,
      "Ġarch": 4470,
      "Ġreduce": 4471,
      "ĠWar": 4472,
      "ĠFran": 4473,
      "aker": 4474,
      "ians": 4475,
      "Ġtechnology": 4476,
      "Ġ->": 4477,
      "Ġfields": 4478,
      "ĠFrom": 4479,
      "MO": 4480,
      "oses": 4481,
      "reen": 4482,
      "otype": 4483,
      "._": 4484,
      "\"/>": 4485,
      "config": 4486,
      "Ġparties": 4487,
      "Ġeasily": 4488,
      "Ġcontinue": 4489,
      "Ġstar": 4490,
      "odies": 4491,
      "pat": 4492,
      "Ġtransport": 4493,
      "DA": 4494,
      "iciency": 4495,
      "ĠDet": 4496,
      "ĠTrans": 4497,
      "Ġshowing": 4498,
      "ĠPe": 4499,
      "Ġqual": 4500,
      "]\\],": 4501,
      "illing": 4502,
      "ĠApril": 4503,
      "Ġprofess": 4504,
      "ett": 4505,
      "Ġzero": 4506,
      "ĠSw": 4507,
      "*(": 4508,
      "space": 4509,
      "[\\": 4510,
      "Ġutil": 4511,
      "run": 4512,
      "Ġ~": 4513,
      "zz": 4514,
      "Ġcounsel": 4515,
      "Ġinternal": 4516,
      "Ġcommand": 4517,
      "iform": 4518,
      "Ġprocessing": 4519,
      "Ġer": 4520,
      "Ġdemonstrated": 4521,
      "Ġportion": 4522,
      "';": 4523,
      "Ġreading": 4524,
      "\":\"": 4525,
      "Ġclean": 4526,
      "*)": 4527,
      "Â¶": 4528,
      "ĠCou": 4529,
      "under": 4530,
      "Ġofficial": 4531,
      "db": 4532,
      "uel": 4533,
      "Ġgames": 4534,
      "Ġliqu": 4535,
      "Ġconcept": 4536,
      "Ġparticipants": 4537,
      "ivil": 4538,
      "Ġles": 4539,
      "Ġuses": 4540,
      "Ġ35": 4541,
      "ĠDav": 4542,
      "Ġcapt": 4543,
      "////////": 4544,
      "Ġprocedure": 4545,
      "gest": 4546,
      "Ġmetab": 4547,
      "Ġjur": 4548,
      "Ġoptions": 4549,
      "Ġago": 4550,
      "Ġnames": 4551,
      "čĊĠĠĠĠĠĠĠ": 4552,
      "Ġadvant": 4553,
      "ĠCons": 4554,
      "sens": 4555,
      "Ġisn": 4556,
      "Not": 4557,
      "Ġcolumn": 4558,
      "Form": 4559,
      "zym": 4560,
      "free": 4561,
      "Ġsubstr": 4562,
      "duces": 4563,
      "apter": 4564,
      "fil": 4565,
      "``": 4566,
      "Ġalone": 4567,
      "ovember": 4568,
      "urance": 4569,
      "ĠAccording": 4570,
      "ĠBar": 4571,
      "ĠUSA": 4572,
      "cin": 4573,
      "Â¥": 4574,
      "xy": 4575,
      "Ġactual": 4576,
      "Ġactivities": 4577,
      "Ġsecurity": 4578,
      "ĠTable": 4579,
      "Ġcombination": 4580,
      "ql": 4581,
      "encing": 4582,
      "BC": 4583,
      "aling": 4584,
      "atin": 4585,
      "ĠĠĠĠĠĠĠĠĠĠĠĠĠĠĠĠĠĠĠĠĠĠ": 4586,
      "ĠJust": 4587,
      "color": 4588,
      "ĠIL": 4589,
      "ÂĪ": 4590,
      "alle": 4591,
      "ĠHealth": 4592,
      "SA": 4593,
      "mselves": 4594,
      "istry": 4595,
      "Ġreasons": 4596,
      "Ġproduce": 4597,
      "Ġstop": 4598,
      "Ġsyn": 4599,
      "Ġincor": 4600,
      "bolds": 4601,
      "Ġlearning": 4602,
      "Ġhimself": 4603,
      "Ġliving": 4604,
      "font": 4605,
      "Ġprop": 4606,
      "ournal": 4607,
      "Ġregarding": 4608,
      "title": 4609,
      "Ġopinion": 4610,
      "Ġindicate": 4611,
      "/(-": 4612,
      "ĠSchool": 4613,
      "iate": 4614,
      "icip": 4615,
      "Ġce": 4616,
      "Ġsetting": 4617,
      "count": 4618,
      "004": 4619,
      "Sc": 4620,
      "boldsymbol": 4621,
      "Î·": 4622,
      "Ġchoice": 4623,
      "Ġperfect": 4624,
      "One": 4625,
      "Ġrelatively": 4626,
      "Ġ2009": 4627,
      "Ġculture": 4628,
      "Ġlost": 4629,
      "Ġconsequ": 4630,
      "band": 4631,
      "mic": 4632,
      "java": 4633,
      "ades": 4634,
      "orb": 4635,
      "Ġgir": 4636,
      "circ": 4637,
      "haps": 4638,
      "Ġpetition": 4639,
      "iques": 4640,
      "Ġremains": 4641,
      "%,": 4642,
      "Ġnational": 4643,
      "Ġcharacteristics": 4644,
      "ĠSub": 4645,
      "athe": 4646,
      "stream": 4647,
      "ille": 4648,
      "Ġinteg": 4649,
      "imensional": 4650,
      "ĠAugust": 4651,
      "Ġappears": 4652,
      "Item": 4653,
      "Ġmount": 4654,
      "Ġequival": 4655,
      "prime": 4656,
      "Ġball": 4657,
      "Ġ2008": 4658,
      "eria": 4659,
      "Î²": 4660,
      "Ġvehicle": 4661,
      "ride": 4662,
      "Ġpeak": 4663,
      "Ġsaw": 4664,
      "Ġtherm": 4665,
      "long": 4666,
      "500": 4667,
      "Size": 4668,
      "Ġpsy": 4669,
      "0028": 4670,
      "Ġclearly": 4671,
      "Over": 4672,
      "Ġconsistent": 4673,
      "Ġpen": 4674,
      "raz": 4675,
      "ĠNow": 4676,
      "Ġobjects": 4677,
      "info": 4678,
      "Ġresistance": 4679,
      "}-": 4680,
      "Ġnearest": 4681,
      "Ġstructures": 4682,
      "ifier": 4683,
      "Ġbegan": 4684,
      "Ġaspect": 4685,
      "gn": 4686,
      "Ġlat": 4687,
      "Ġcycl": 4688,
      "Big": 4689,
      "FT": 4690,
      "/(": 4691,
      "DR": 4692,
      "raint": 4693,
      "Ġdeep": 4694,
      "pc": 4695,
      "Ġoptical": 4696,
      "Ġcollection": 4697,
      "Ġrevealed": 4698,
      "king": 4699,
      "Ġattention": 4700,
      "pir": 4701,
      "Ġcompletely": 4702,
      "Ġconducted": 4703,
      "ributions": 4704,
      "ka": 4705,
      "ĠFeb": 4706,
      "Ġcam": 4707,
      "ociety": 4708,
      "........": 4709,
      "Ġreasonable": 4710,
      "mark": 4711,
      "False": 4712,
      "Ġreleased": 4713,
      "pol": 4714,
      "PA": 4715,
      "Ġcomment": 4716,
      "eed": 4717,
      "ĠFurthermore": 4718,
      "Ġsituation": 4719,
      "Ġsle": 4720,
      "ui": 4721,
      "Ġcomparison": 4722,
      "aily": 4723,
      "(),": 4724,
      "ĠNULL": 4725,
      "Ġchalleng": 4726,
      "CM": 4727,
      "Ġthemselves": 4728,
      "Ġled": 4729,
      "Ġ95": 4730,
      "ĠOctober": 4731,
      "^âĪĴ": 4732,
      "Ġcoord": 4733,
      "Ġlegal": 4734,
      "Ġreplacement": 4735,
      "sembly": 4736,
      "ilde": 4737,
      "Ġtask": 4738,
      "Ġunderstanding": 4739,
      "Ġ2017": 4740,
      "Ġreflect": 4741,
      "Ġdamage": 4742,
      "ĠTra": 4743,
      "Ġdetection": 4744,
      "Ġcompr": 4745,
      "Ġtool": 4746,
      "erson": 4747,
      "anger": 4748,
      "Ġunits": 4749,
      "Ġletters": 4750,
      "kappa": 4751,
      "Ġreceive": 4752,
      "Ġuns": 4753,
      "ĠDecember": 4754,
      "Ġfederal": 4755,
      "Â½": 4756,
      "orney": 4757,
      ")/(-": 4758,
      "Ġneigh": 4759,
      "Ġsound": 4760,
      "Ġbal": 4761,
      "Ġitems": 4762,
      "cons": 4763,
      "Ġactivation": 4764,
      "Ġplant": 4765,
      ".'": 4766,
      "Lambda": 4767,
      "coming": 4768,
      "CON": 4769,
      "ĠĠĠĠĠĠĠĠĠĠĠĠĠĠĠĠĠĠĠĠĠĠĠ": 4770,
      "Ġoperator": 4771,
      "Ġsoon": 4772,
      "Ġfre": 4773,
      "alt": 4774,
      "ford": 4775,
      "Ġbuilt": 4776,
      "Ġneut": 4777,
      "':": 4778,
      "Ġri": 4779,
      "ensuremath": 4780,
      "Ġcountries": 4781,
      "Ġdeb": 4782,
      "osing": 4783,
      "());": 4784,
      "mail": 4785,
      "Ġsolid": 4786,
      "Ġseparate": 4787,
      "Ġ90": 4788,
      "Path": 4789,
      "uns": 4790,
      "typ": 4791,
      "FA": 4792,
      "ascular": 4793,
      ".](": 4794,
      "Ġmeaning": 4795,
      "Ġbill": 4796,
      "erved": 4797,
      "Ġways": 4798,
      "Ġfair": 4799,
      "Ġbank": 4800,
      "Ġnor": 4801,
      "Ġbehind": 4802,
      "aa": 4803,
      "({\\": 4804,
      "inst": 4805,
      "Calculate": 4806,
      "ÂĮ": 4807,
      "Ġintern": 4808,
      "ĠSeptember": 4809,
      "Ġdro": 4810,
      "ĠID": 4811,
      "amin": 4812,
      "Ġchannel": 4813,
      "Ġgave": 4814,
      "ĠDepartment": 4815,
      "Ġpretty": 4816,
      "input": 4817,
      "Ġsets": 4818,
      "**)": 4819,
      "Ġhearing": 4820,
      "ersion": 4821,
      "case": 4822,
      "Ġprice": 4823,
      "Ġwanted": 4824,
      "Ġfine": 4825,
      "ooth": 4826,
      "jection": 4827,
      "Ġrepl": 4828,
      "otal": 4829,
      "lick": 4830,
      "Ġfully": 4831,
      "ĠChina": 4832,
      "lication": 4833,
      "Ġrev": 4834,
      "Ġinfluence": 4835,
      "Ġforms": 4836,
      "ĠFigure": 4837,
      "Ġleave": 4838,
      "ĠBrit": 4839,
      "Ġtransform": 4840,
      "unk": 4841,
      "Ġ$[": 4842,
      "SI": 4843,
      "Ã¼": 4844,
      "Of": 4845,
      "Ġcontinuous": 4846,
      "Ġvict": 4847,
      "ĠAM": 4848,
      "board": 4849,
      "='": 4850,
      "Ġvirt": 4851,
      "Ġexposure": 4852,
      "ventional": 4853,
      "Ġmetal": 4854,
      "php": 4855,
      "Ġemail": 4856,
      "start": 4857,
      "Ġpolice": 4858,
      "oken": 4859,
      "ibly": 4860,
      "Ġswitch": 4861,
      "Ġmanner": 4862,
      "true": 4863,
      "Ġvisual": 4864,
      "Ġcompet": 4865,
      "node": 4866,
      "Ġ(\"": 4867,
      "Ġeducation": 4868,
      "}}{": 4869,
      "Ġcardi": 4870,
      "Ġinduced": 4871,
      "Ġupper": 4872,
      "ashing": 4873,
      "Ġtravel": 4874,
      "pective": 4875,
      "oon": 4876,
      "Ġsolutions": 4877,
      "Ġkin": 4878,
      "###": 4879,
      "Ġfinancial": 4880,
      "enses": 4881,
      "ameter": 4882,
      "Ġcosts": 4883,
      "Ġconstruction": 4884,
      "Ġchanged": 4885,
      "icit": 4886,
      "otimes": 4887,
      "Ġbacter": 4888,
      "Ġbecomes": 4889,
      "Ġmg": 4890,
      "']": 4891,
      "Ġmolecular": 4892,
      "Ġestablish": 4893,
      "ĠMon": 4894,
      "Ġsong": 4895,
      "Ġmac": 4896,
      "sf": 4897,
      "icity": 4898,
      "Ġdatabase": 4899,
      "Ġotherwise": 4900,
      "CI": 4901,
      "subset": 4902,
      "ĠRed": 4903,
      "ĠChar": 4904,
      "ĠRev": 4905,
      "Ġnews": 4906,
      "Ġroot": 4907,
      "ico": 4908,
      "Ġmer": 4909,
      "Ġ37": 4910,
      "Ġstore": 4911,
      "Ġnoted": 4912,
      "ira": 4913,
      "uses": 4914,
      "ĠPublic": 4915,
      "Ġenjoy": 4916,
      "Ġtests": 4917,
      "Ġhospital": 4918,
      "tee": 4919,
      "Ġregul": 4920,
      "ĠAND": 4921,
      "Ġinterface": 4922,
      "Context": 4923,
      "Ġcomplic": 4924,
      "Â®": 4925,
      "Ġ80": 4926,
      "elle": 4927,
      "Ġstrength": 4928,
      "Ġcore": 4929,
      "Ġfriends": 4930,
      "Ġstudied": 4931,
      "itivity": 4932,
      "Ġsources": 4933,
      "ait": 4934,
      "tra": 4935,
      "Ġspin": 4936,
      "Ġtro": 4937,
      "Exp": 4938,
      "bm": 4939,
      "ĠOf": 4940,
      "unn": 4941,
      "ĠNovember": 4942,
      "Ġitem": 4943,
      "eli": 4944,
      "poses": 4945,
      "ĠBecause": 4946,
      "})$": 4947,
      "Ġincreases": 4948,
      "erent": 4949,
      "Ġlib": 4950,
      "PO": 4951,
      "Ġplaced": 4952,
      "iforn": 4953,
      "Ġtesting": 4954,
      "Ġserious": 4955,
      "SY": 4956,
      "ĠAmerica": 4957,
      "itory": 4958,
      "Ġneur": 4959,
      "rew": 4960,
      "Ġvariety": 4961,
      "level": 4962,
      "Ġpanel": 4963,
      "force": 4964,
      "Ġwide": 4965,
      "Ġfix": 4966,
      "well": 4967,
      "0001": 4968,
      "?\"": 4969,
      "IB": 4970,
      "ĠChe": 4971,
      "flow": 4972,
      "yond": 4973,
      "ares": 4974,
      "Ġanyone": 4975,
      "Ġ((": 4976,
      "Ġapproximately": 4977,
      "Ġslight": 4978,
      "Ġinteresting": 4979,
      "Ġemerg": 4980,
      "Ġstd": 4981,
      "Ġsec": 4982,
      "Ġcarried": 4983,
      "enge": 4984,
      "iences": 4985,
      "Ġcapacity": 4986,
      "Ġboard": 4987,
      "Ġmajority": 4988,
      "Âľ": 4989,
      "ĠPM": 4990,
      "ÏĤ": 4991,
      "Âļ": 4992,
      "Ġcompanies": 4993,
      "ĠPresident": 4994,
      "Ġmort": 4995,
      "Ġsuff": 4996,
      "Ġtowards": 4997,
      "ĠAut": 4998,
      "ĠRNA": 4999,
      "Info": 5000,
      "Be": 5001,
      "Ġnan": 5002,
      "mbox": 5003,
      "object": 5004,
      "Ġproviding": 5005,
      "Ġwave": 5006,
      "Ġexperimental": 5007,
      "image": 5008,
      "ruary": 5009,
      "Ġoffice": 5010,
      "Ġsubjects": 5011,
      "Ab": 5012,
      "Ġstation": 5013,
      "Ġanalyzed": 5014,
      "gu": 5015,
      "Ġindustry": 5016,
      "Ġimproved": 5017,
      "RA": 5018,
      "ĊĊĠĠĠĠĠĠĠĠĠĠĠ": 5019,
      "ights": 5020,
      "Ñĥ": 5021,
      "Ġcool": 5022,
      "Ġclient": 5023,
      "Ġinn": 5024,
      "Ġassume": 5025,
      "Ġsomet": 5026,
      "Ġcandid": 5027,
      "Ġdrive": 5028,
      "Ġcert": 5029,
      "ĠAlso": 5030,
      "ĠEnglish": 5031,
      "Ġmid": 5032,
      "oting": 5033,
      "Ġprove": 5034,
      "Ġdark": 5035,
      "Ġtypically": 5036,
      "ĠAD": 5037,
      "Ġhypot": 5038,
      "Ġenter": 5039,
      "ifornia": 5040,
      "rical": 5041,
      "ressive": 5042,
      "Ġmale": 5043,
      "Ġpolitical": 5044,
      "Ġones": 5045,
      "ĠNOT": 5046,
      "Me": 5047,
      "Ġfilter": 5048,
      ".*": 5049,
      "uge": 5050,
      "ĠGr": 5051,
      "ographic": 5052,
      "TO": 5053,
      "TS": 5054,
      "undred": 5055,
      "Ġadapt": 5056,
      "ĠWest": 5057,
      "adem": 5058,
      "Ġchrom": 5059,
      "parent": 5060,
      "Ġselection": 5061,
      "Ġfacts": 5062,
      "Ġachieve": 5063,
      "check": 5064,
      "using": 5065,
      "Ġfather": 5066,
      "Ġtrust": 5067,
      "Ġabsol": 5068,
      "Ġbasic": 5069,
      "Ġsecret": 5070,
      "Ġthroughout": 5071,
      "Ġweak": 5072,
      "------------------------------------------------": 5073,
      "\\|": 5074,
      "Ġrules": 5075,
      "âĢ²": 5076,
      "Ġgoal": 5077,
      "ĠĠĠĠĠĠĠĠĠĠĠĠĠĠĠĠĠĠĠĠĠĠĠĠĠĠĠĠĠĠĠĠĠĠĠĠĠĠĠĠĠĠĠĠĠĠĠĠĠĠĠĠĠĠĠĠ": 5078,
      "Ġmachine": 5079,
      "ocket": 5080,
      "abla": 5081,
      "Ġcommit": 5082,
      "vari": 5083,
      "Ser": 5084,
      "Ġwhereas": 5085,
      "Requ": 5086,
      "Ġbrought": 5087,
      "Event": 5088,
      "Ġenzym": 5089,
      "ĠHigh": 5090,
      "[]": 5091,
      "Ġfat": 5092,
      "iding": 5093,
      "uffer": 5094,
      "Ġ2000": 5095,
      "Ġcoming": 5096,
      "etilde": 5097,
      "Ġsummary": 5098,
      "~~~": 5099,
      "ESS": 5100,
      "widetilde": 5101,
      "Ġcounter": 5102,
      "Ġearlier": 5103,
      "Ġoil": 5104,
      "ĠPlaintiff": 5105,
      "ĠAfric": 5106,
      "Â¤": 5107,
      "normal": 5108,
      "ÂĤ": 5109,
      "TY": 5110,
      "Ġalbum": 5111,
      "After": 5112,
      "stitution": 5113,
      "Ġremoved": 5114,
      "Index": 5115,
      "urrent": 5116,
      "Ġbeyond": 5117,
      "ĊĊĠĠĠĠĠ": 5118,
      "ado": 5119,
      "Ġexisting": 5120,
      "omas": 5121,
      "car": 5122,
      "ĠTH": 5123,
      "Field": 5124,
      "{{": 5125,
      "ctors": 5126,
      "Ġlip": 5127,
      "ĠEl": 5128,
      "Ġcarry": 5129,
      "ĠRuss": 5130,
      "Ġthrow": 5131,
      "Ġsuggested": 5132,
      "Ġdiscussed": 5133,
      "kg": 5134,
      "yst": 5135,
      "&\\": 5136,
      "Ġclosed": 5137,
      "Ġsn": 5138,
      "Ġcommer": 5139,
      "Ġroad": 5140,
      "othe": 5141,
      "Ġtown": 5142,
      "otion": 5143,
      "Sub": 5144,
      "Ġrapid": 5145,
      "Ã¯": 5146,
      "Ġbrief": 5147,
      "EE": 5148,
      "Ġpicked": 5149,
      "Ġblog": 5150,
      "Ġliquid": 5151,
      "Ġlas": 5152,
      "Ġtechniques": 5153,
      "itis": 5154,
      "GG": 5155,
      "ĠOb": 5156,
      "\",\"": 5157,
      "matrix": 5158,
      "Ġmm": 5159,
      "BA": 5160,
      "Ġcorrelation": 5161,
      "Ġwatch": 5162,
      "ky": 5163,
      "LO": 5164,
      "Ġnorm": 5165,
      "That": 5166,
      "Ġprobability": 5167,
      "Ġcomposition": 5168,
      "diction": 5169,
      "Ġdescription": 5170,
      "Ġcommunication": 5171,
      "igation": 5172,
      "Ġimm": 5173,
      "imony": 5174,
      "itness": 5175,
      "Ġcollect": 5176,
      "ĠAc": 5177,
      "Ġ2007": 5178,
      "Ġplease": 5179,
      "Ġinsert": 5180,
      "Out": 5181,
      "nabla": 5182,
      "Ïħ": 5183,
      "ĠList": 5184,
      "Phi": 5185,
      "apping": 5186,
      "nb": 5187,
      "Ġcatal": 5188,
      "Ġreli": 5189,
      "urity": 5190,
      "itter": 5191,
      "Ġscreen": 5192,
      "Ġadopt": 5193,
      "utive": 5194,
      "Ġgal": 5195,
      "Ġcircumst": 5196,
      "hold": 5197,
      "gs": 5198,
      "Ġanimals": 5199,
      "Â»": 5200,
      "ĠEq": 5201,
      "ĠResearch": 5202,
      "Ġarri": 5203,
      "Ġdecreased": 5204,
      "TI": 5205,
      "Ġevolution": 5206,
      "ĠBr": 5207,
      "ĠCirc": 5208,
      "Ġ48": 5209,
      "Ġplayed": 5210,
      "Reg": 5211,
      "Ġdiss": 5212,
      "Ġvolt": 5213,
      "}+": 5214,
      "Ġwindow": 5215,
      "Ġsevere": 5216,
      "Ġbond": 5217,
      "Ã£o": 5218,
      "Ġalgorithm": 5219,
      "Ġshape": 5220,
      "Ġderived": 5221,
      "TER": 5222,
      "Rec": 5223,
      "Ġrelation": 5224,
      "Ġsteps": 5225,
      "Ġplate": 5226,
      "ĠMich": 5227,
      "ĠDefend": 5228,
      "Ġillust": 5229,
      "can": 5230,
      "Do": 5231,
      "SH": 5232,
      "Ġtested": 5233,
      "Ġmag": 5234,
      "stitute": 5235,
      "olar": 5236,
      "Ġcontrols": 5237,
      "ĠCON": 5238,
      "attle": 5239,
      ")?": 5240,
      "range": 5241,
      "Ġrespond": 5242,
      "Ġhon": 5243,
      "Ġ45": 5244,
      "ĠAustral": 5245,
      "MR": 5246,
      "Ġdistributed": 5247,
      "Ġeth": 5248,
      "âĢ¢": 5249,
      "Ġfa": 5250,
      "ĠOther": 5251,
      "Ġbran": 5252,
      "Ġsurgery": 5253,
      "za": 5254,
      "ingu": 5255,
      "Ġaw": 5256,
      "Ġrob": 5257,
      "reek": 5258,
      "Ġworth": 5259,
      "olved": 5260,
      "ignment": 5261,
      "ĠMark": 5262,
      "ĠNote": 5263,
      "Âį": 5264,
      "mmet": 5265,
      "nes": 5266,
      "Ġcollected": 5267,
      "Ġbuy": 5268,
      "Ġworked": 5269,
      "Ġmys": 5270,
      "open": 5271,
      "Ġ36": 5272,
      "Ġdismiss": 5273,
      "DS": 5274,
      "rench": 5275,
      "Ġsurvival": 5276,
      "aratus": 5277,
      "Ġ--------": 5278,
      "ĠRE": 5279,
      "ÂĦ": 5280,
      "write": 5281,
      "Ġstarting": 5282,
      "Ġvel": 5283,
      "thon": 5284,
      "Ġwoman": 5285,
      "Ġremove": 5286,
      "abs": 5287,
      "Ġvert": 5288,
      "Ġdose": 5289,
      "ymph": 5290,
      "ometry": 5291,
      "Ġsymmet": 5292,
      "Ġplayer": 5293,
      "erior": 5294,
      "soft": 5295,
      "ĊĊĊĊ": 5296,
      "Ġinflam": 5297,
      "cor": 5298,
      "Ġconcentrations": 5299,
      "xx": 5300,
      "Ġchemical": 5301,
      "Ġmembrane": 5302,
      "rome": 5303,
      "Ġ2006": 5304,
      "Ġson": 5305,
      "Ġcoe": 5306,
      "Code": 5307,
      "atically": 5308,
      "Ġthick": 5309,
      "ĠBi": 5310,
      "See": 5311,
      "Ġtechnique": 5312,
      "Ġwonder": 5313,
      "Here": 5314,
      "**]{},": 5315,
      "Ġ2018": 5316,
      "Ġbed": 5317,
      "Ġskin": 5318,
      "untu": 5319,
      "IO": 5320,
      "specific": 5321,
      "ĠGet": 5322,
      "ections": 5323,
      ".[@": 5324,
      "ayer": 5325,
      "opic": 5326,
      "icial": 5327,
      "ilitary": 5328,
      "maz": 5329,
      "Config": 5330,
      "Ġnamed": 5331,
      "rient": 5332,
      "ĠKing": 5333,
      "ulf": 5334,
      "Act": 5335,
      "ĠTex": 5336,
      "ulin": 5337,
      "Ġagree": 5338,
      "Ġ///": 5339,
      "Ġsometimes": 5340,
      "Now": 5341,
      "pected": 5342,
      "Ġproport": 5343,
      "Ġedge": 5344,
      "Ġexactly": 5345,
      "Ġplasma": 5346,
      "Ġbeaut": 5347,
      "Ð»": 5348,
      "Ġassociation": 5349,
      "Ġinstit": 5350,
      "ponent": 5351,
      "Ġstorage": 5352,
      "nonumber": 5353,
      "ĠGroup": 5354,
      "Read": 5355,
      "}}_{": 5356,
      "Ġeyes": 5357,
      "cs": 5358,
      "âĢĬ": 5359,
      "Ġfigure": 5360,
      "actor": 5361,
      "otyp": 5362,
      "ĠFr": 5363,
      "UE": 5364,
      "Ġoptim": 5365,
      "esis": 5366,
      "ĠDis": 5367,
      "ĠAng": 5368,
      "Ġrecommend": 5369,
      "ĠHouse": 5370,
      "Ġbottom": 5371,
      "Ġlabor": 5372,
      "rary": 5373,
      "Ġresources": 5374,
      "plify": 5375,
      "NO": 5376,
      "Ġspecifically": 5377,
      "ĠCalifornia": 5378,
      "pass": 5379,
      "ĠSec": 5380,
      "Ġanalyses": 5381,
      "Ġsymptoms": 5382,
      "Ġapparatus": 5383,
      "ĠPark": 5384,
      "Ġimmediately": 5385,
      "Ġhundred": 5386,
      "Ġactions": 5387,
      "Ġcycle": 5388,
      "Ġleads": 5389,
      "PC": 5390,
      "Ġ70": 5391,
      "Ġbuffer": 5392,
      "ocr": 5393,
      "Â§": 5394,
      "Ġpull": 5395,
      "())": 5396,
      "Ġreports": 5397,
      "LA": 5398,
      "idem": 5399,
      "Ġmotor": 5400,
      "fort": 5401,
      "Ġvac": 5402,
      "Ġmeasurements": 5403,
      "Ġdoc": 5404,
      "==========": 5405,
      "HT": 5406,
      "ida": 5407,
      "osc": 5408,
      "content": 5409,
      "Ñı": 5410,
      "Solve": 5411,
      "Ġdecided": 5412,
      "ĠWilli": 5413,
      "ĠFebruary": 5414,
      "Ġplatform": 5415,
      "Trans": 5416,
      "oto": 5417,
      "Array": 5418,
      "Ġexception": 5419,
      "Ġdiagnosis": 5420,
      "induced": 5421,
      "Ġmechanisms": 5422,
      "Ġobvious": 5423,
      "(&": 5424,
      "aur": 5425,
      "Îº": 5426,
      "gebra": 5427,
      "Ġscen": 5428,
      "Ġresponses": 5429,
      "Ġfinite": 5430,
      "Ġlooks": 5431,
      "Ġintroduced": 5432,
      "RT": 5433,
      "ĠBoard": 5434,
      "Ġabsence": 5435,
      "Ġmoved": 5436,
      "olid": 5437,
      "--------------------------------------------------------------------------------------------------------------------------------": 5438,
      "Ġwild": 5439,
      "block": 5440,
      "Ġpopular": 5441,
      "Ġentry": 5442,
      "etes": 5443,
      "Ġbenefits": 5444,
      "Ġaward": 5445,
      "ĊĊĠĠĠĠĠĠ": 5446,
      "page": 5447,
      "resents": 5448,
      "]),": 5449,
      "num": 5450,
      "post": 5451,
      "Ġelectron": 5452,
      "Ġupd": 5453,
      "Ġreturned": 5454,
      "Ġensure": 5455,
      "Ġchoose": 5456,
      "Ġ------------": 5457,
      "Ġconventional": 5458,
      "uty": 5459,
      "ĠInter": 5460,
      "current": 5461,
      "Ġdepart": 5462,
      "ota": 5463,
      "flo": 5464,
      "ĠSan": 5465,
      "host": 5466,
      "Ġparticles": 5467,
      "Ġefficient": 5468,
      "Ġsafety": 5469,
      "asion": 5470,
      "Ġcombined": 5471,
      "ipp": 5472,
      "ithub": 5473,
      "rices": 5474,
      "ncil": 5475,
      "ĠCenter": 5476,
      "QL": 5477,
      "enty": 5478,
      "Ġjuris": 5479,
      "VER": 5480,
      "%%": 5481,
      "Ġcomplaint": 5482,
      "Ġwrote": 5483,
      "Ġmeasures": 5484,
      "Ġgoes": 5485,
      "Ġmentioned": 5486,
      "Ġagent": 5487,
      "ba": 5488,
      "ĠÎ±": 5489,
      "Ġinterview": 5490,
      "allel": 5491,
      "Ġ/**": 5492,
      "dots": 5493,
      "Ġapparent": 5494,
      "Ã³n": 5495,
      ">>": 5496,
      "ĠSupp": 5497,
      "vest": 5498,
      "MB": 5499,
      "Ġfemale": 5500,
      "Ġrepro": 5501,
      "Ġquantum": 5502,
      "ĠDE": 5503,
      "ĠBro": 5504,
      "Ġpow": 5505,
      "ĠCommission": 5506,
      "Sigma": 5507,
      "oura": 5508,
      "Ġbone": 5509,
      "Ġexternal": 5510,
      "Âĺ": 5511,
      "ĠHam": 5512,
      "Ġcryst": 5513,
      "Ġgets": 5514,
      "Ġalternative": 5515,
      "Ġwid": 5516,
      "Ġstatute": 5517,
      "Ġroll": 5518,
      "MI": 5519,
      "Ġshift": 5520,
      "enced": 5521,
      "osen": 5522,
      "Ġdistinct": 5523,
      "rie": 5524,
      "Ġupdate": 5525,
      "Ġdenied": 5526,
      "Ġmonitor": 5527,
      "Ġvisit": 5528,
      "ĠCong": 5529,
      "Ġreceptor": 5530,
      "Ġmovement": 5531,
      "Ġ(!": 5532,
      "ĠHer": 5533,
      "**]{}": 5534,
      "Ġsend": 5535,
      "??": 5536,
      "Ġtransmission": 5537,
      "last": 5538,
      "aching": 5539,
      "Ġrecorded": 5540,
      "Ġarrang": 5541,
      "Ġblue": 5542,
      "Ġ2005": 5543,
      "berg": 5544,
      "inity": 5545,
      "idel": 5546,
      "Ġtree": 5547,
      "Ġrelig": 5548,
      "Ġsold": 5549,
      "Aut": 5550,
      "fa": 5551,
      "istant": 5552,
      "Ġunc": 5553,
      "Ġstaff": 5554,
      "acing": 5555,
      "Ġaffected": 5556,
      "Ġdog": 5557,
      "Ġremainder": 5558,
      "ails": 5559,
      "Ġdecrease": 5560,
      "irit": 5561,
      "Ġtransl": 5562,
      "Count": 5563,
      "going": 5564,
      "stract": 5565,
      "Ġresolution": 5566,
      "Ġsignals": 5567,
      "AND": 5568,
      "ĠTheorem": 5569,
      "ĠĠĠĠĠĠĠĠĠĠĠĠĠĠĠĠĠĠĠĠĠĠĠĠĠĠĠĠĠĠĠĠĠĠĠĠĠĠĠĠĠĠĠĠĠĠĠĠĠĠĠĠĠĠĠĠĠĠĠĠĠĠĠĠĠĠĠĠĠĠĠĠĠĠĠĠĠĠĠĠĠĠĠĠĠĠĠĠĠĠĠĠĠĠĠĠĠĠĠĠĠĠĠĠĠĠĠĠĠĠĠĠĠĠĠĠĠĠĠĠĠĠĠĠĠĠĠĠĠĠĠĠĠĠĠĠĠĠĠĠĠĠĠĠĠĠĠĠĠĠĠĠĠĠĠĠĠĠĠĠĠĠĠĠĠĠĠĠĠĠĠĠĠĠĠĠĠĠĠĠĠĠĠĠĠĠĠĠĠĠĠĠĠĠĠĠĠĠĠĠĠĠĠĠĠĠĠĠĠĠĠĠĠĠĠĠĠĠĠĠĠĠĠĠĠĠĠĠĠĠĠĠĠĠĠĠĠĠĠĠĠĠĠĠĠĠĠĠĠĠĠĠĠĠĠĠ": 5570,
      "Ġformat": 5571,
      "Group": 5572,
      "ifying": 5573,
      "Ġmodule": 5574,
      "Ġthreat": 5575,
      "Ġvent": 5576,
      "Ġsubstrate": 5577,
      "mem": 5578,
      "ĠCode": 5579,
      "omorph": 5580,
      "Ġmess": 5581,
      "CF": 5582,
      "ĠDi": 5583,
      "Ġestimated": 5584,
      "Ġmig": 5585,
      "Ġhous": 5586,
      "eric": 5587,
      "Ġminimum": 5588,
      "Ġ33": 5589,
      "rence": 5590,
      "Ġdelay": 5591,
      "Ġphone": 5592,
      "Ġextrem": 5593,
      "itled": 5594,
      "Ġign": 5595,
      "Ġinteractions": 5596,
      "Ġplaces": 5597,
      "Ġerrors": 5598,
      "pa": 5599,
      "ĊĠĠĠĠĠĠĠĠĠĠĠĠĠĠĠĠĠĠĠĠĠĠĠĠĠĠĠ": 5600,
      "Ġlov": 5601,
      "ĠLaw": 5602,
      "ifest": 5603,
      "rick": 5604,
      "pled": 5605,
      "Ġrepresents": 5606,
      "Ġeveryone": 5607,
      "Ġcop": 5608,
      "Ġhab": 5609,
      "ondon": 5610,
      "local": 5611,
      "ĠCalculate": 5612,
      "Inter": 5613,
      "ĠAnt": 5614,
      "agram": 5615,
      "Ġsequences": 5616,
      "Ġdigit": 5617,
      "Ġ34": 5618,
      "Ġprepar": 5619,
      "sup": 5620,
      "Ġeight": 5621,
      "conn": 5622,
      "Ġexercise": 5623,
      "Ġagg": 5624,
      "ĠInst": 5625,
      "RS": 5626,
      "Ġalleged": 5627,
      "ptions": 5628,
      "^+^": 5629,
      "Ġloop": 5630,
      "Log": 5631,
      "Ġopportunity": 5632,
      "Hand": 5633,
      "core": 5634,
      "ĠEm": 5635,
      "ario": 5636,
      "Ġdead": 5637,
      "Ġcauses": 5638,
      "lt": 5639,
      "OO": 5640,
      "ĠMus": 5641,
      "ĠSen": 5642,
      "IA": 5643,
      "XX": 5644,
      "ara": 5645,
      "Ġtestimony": 5646,
      "ync": 5647,
      "ytic": 5648,
      "Ġincorpor": 5649,
      "Ġinstr": 5650,
      "Ġconver": 5651,
      "Ġclick": 5652,
      "Ġtend": 5653,
      "ĠSE": 5654,
      "ĠFound": 5655,
      "faces": 5656,
      "Ġbenefit": 5657,
      "ĠEach": 5658,
      "Ġconvert": 5659,
      "Ġ42": 5660,
      "Ġmoving": 5661,
      "aign": 5662,
      "Ġadministration": 5663,
      "Ġresponsible": 5664,
      "coh": 5665,
      "ĠNS": 5666,
      "''": 5667,
      "cence": 5668,
      "rich": 5669,
      "Ġrequirements": 5670,
      "dir": 5671,
      "Ġca": 5672,
      "result": 5673,
      "izer": 5674,
      "Ġcommercial": 5675,
      "Up": 5676,
      "Ġpaid": 5677,
      "mid": 5678,
      "jo": 5679,
      "Ġnone": 5680,
      "Ġonto": 5681,
      "Ġprograms": 5682,
      "frame": 5683,
      "Ġprofile": 5684,
      "Ġbul": 5685,
      "roller": 5686,
      "Ġchain": 5687,
      "ilarly": 5688,
      "AAAA": 5689,
      "omb": 5690,
      "ĠCA": 5691,
      "ĠÐ¿": 5692,
      "Ġtools": 5693,
      "Inst": 5694,
      "Element": 5695,
      "Ġclasses": 5696,
      "Ġscient": 5697,
      "acters": 5698,
      "ĠPre": 5699,
      "RL": 5700,
      "2012": 5701,
      "lies": 5702,
      "inant": 5703,
      "-------": 5704,
      "Ġdemand": 5705,
      "Ġgreen": 5706,
      "Ġvoltage": 5707,
      "ĊĊĉ": 5708,
      "Ġhit": 5709,
      "Ġmeasurement": 5710,
      "ĠCa": 5711,
      "Ġpackage": 5712,
      "ĠSuch": 5713,
      "2015": 5714,
      "Ġoccurred": 5715,
      "_,": 5716,
      "ĠGover": 5717,
      "Ġded": 5718,
      "Ġliterature": 5719,
      "ĠMor": 5720,
      "Ġmiddle": 5721,
      "Ġcontained": 5722,
      "Ġfluid": 5723,
      "Date": 5724,
      "reate": 5725,
      "PT": 5726,
      "Ġstrategy": 5727,
      "dr": 5728,
      "Ġheard": 5729,
      "Color": 5730,
      "}}}": 5731,
      "endif": 5732,
      "Ġserum": 5733,
      "Ġ()": 5734,
      "iers": 5735,
      "Ġ-->": 5736,
      "Ġprepared": 5737,
      "Ġindicates": 5738,
      "Ġjoint": 5739,
      "Ġdaily": 5740,
      "Ġ\"\"": 5741,
      "isl": 5742,
      "Ġelectric": 5743,
      "Ġevaluated": 5744,
      "**(-": 5745,
      "Ġtempor": 5746,
      "itect": 5747,
      "Ġprem": 5748,
      "Ġcareer": 5749,
      ")/(": 5750,
      "ipment": 5751,
      "Ġalt": 5752,
      "Map": 5753,
      "Ġsecondary": 5754,
      "Ġveloc": 5755,
      "Ġstream": 5756,
      "iful": 5757,
      "Ġspectrum": 5758,
      "Ġtoward": 5759,
      "ĠAssoci": 5760,
      "vo": 5761,
      "\\{": 5762,
      "Ġsaying": 5763,
      "Ġthous": 5764,
      "Ġcouple": 5765,
      "ilder": 5766,
      "md": 5767,
      "roy": 5768,
      "Ġ});": 5769,
      "Ġhands": 5770,
      "########": 5771,
      "atur": 5772,
      "DL": 5773,
      "ugg": 5774,
      "Ġknew": 5775,
      "Ġgiving": 5776,
      "/\\": 5777,
      "Equ": 5778,
      "supplementary": 5779,
      "Ġprofessional": 5780,
      "ech": 5781,
      "Ġparents": 5782,
      "ln": 5783,
      "ĠRef": 5784,
      "Ġpassed": 5785,
      "Ġseven": 5786,
      "ogene": 5787,
      "Ġsitu": 5788,
      "Ġexpand": 5789,
      "Ġsuccessful": 5790,
      "Ġequivalent": 5791,
      "Ġextent": 5792,
      "yr": 5793,
      "MT": 5794,
      "Ġsuggests": 5795,
      "\"}.": 5796,
      "ocytes": 5797,
      "Ġdrugs": 5798,
      "=======": 5799,
      "Ġtrig": 5800,
      "Ġlatter": 5801,
      "2014": 5802,
      "Ġconflic": 5803,
      "çļ": 5804,
      "ĠĠĠĠĠĠĠĠĠĠĠĠĠĠĠĠĠĠĠĠĠĠĠĠĠ": 5805,
      "ĠAtt": 5806,
      "Ġsurpr": 5807,
      "Ġconfirmed": 5808,
      "Comp": 5809,
      "icians": 5810,
      "inn": 5811,
      "aste": 5812,
      "VE": 5813,
      "Ġdiab": 5814,
      "ologies": 5815,
      "ivo": 5816,
      "uman": 5817,
      "Ġturned": 5818,
      "BL": 5819,
      "Ġ]": 5820,
      "Ġscript": 5821,
      "ounced": 5822,
      "_{{\\": 5823,
      "cf": 5824,
      "room": 5825,
      "\").": 5826,
      "Ġliver": 5827,
      "ycl": 5828,
      "________________": 5829,
      "ĠInternational": 5830,
      "tre": 5831,
      ")=\\": 5832,
      "Ġdoor": 5833,
      "Ġcomments": 5834,
      "ference": 5835,
      "2017": 5836,
      "Request": 5837,
      "Ġpurposes": 5838,
      "çļĦ": 5839,
      "Ġletter": 5840,
      "Ġunless": 5841,
      "Ġsrc": 5842,
      "Ġradio": 5843,
      "actory": 5844,
      "/**": 5845,
      "Ġthread": 5846,
      "Ġneuro": 5847,
      "reshold": 5848,
      "small": 5849,
      "Ġarbit": 5850,
      "\"></": 5851,
      "Node": 5852,
      "Ġoppos": 5853,
      "ingly": 5854,
      "Ġdefect": 5855,
      "$$\\": 5856,
      "-----": 5857,
      "SU": 5858,
      "Dis": 5859,
      "Ġ2004": 5860,
      "url": 5861,
      "ART": 5862,
      "ributes": 5863,
      "Ġcit": 5864,
      "Ġsam": 5865,
      "ĠCircuit": 5866,
      "github": 5867,
      "Ġhealthy": 5868,
      "Ġmodern": 5869,
      "Ass": 5870,
      "NF": 5871,
      "what": 5872,
      "agement": 5873,
      "ashington": 5874,
      "Ġbelong": 5875,
      "Ġcircumstances": 5876,
      "Ġpatterns": 5877,
      "itz": 5878,
      "Ġdigital": 5879,
      "Ġmur": 5880,
      "Ġfraction": 5881,
      "PH": 5882,
      "Ġsentence": 5883,
      "ael": 5884,
      "ria": 5885,
      "Ġconfiguration": 5886,
      "Ġbooks": 5887,
      "}.": 5888,
      "Ġmobile": 5889,
      "Ġion": 5890,
      "Ġdefense": 5891,
      "Ġgenetic": 5892,
      "CK": 5893,
      "Ġcir": 5894,
      "Ġnearly": 5895,
      "Ġremaining": 5896,
      "Ġimaging": 5897,
      "Ġ+=": 5898,
      "Ġrang": 5899,
      "Ðº": 5900,
      "Ġgeneration": 5901,
      "ector": 5902,
      "Ġchallenge": 5903,
      "2013": 5904,
      "Ġimplic": 5905,
      "Ġpriv": 5906,
      "Ġmorph": 5907,
      "reet": 5908,
      "Ġmouse": 5909,
      "Ġoccup": 5910,
      "Ġappellant": 5911,
      "006": 5912,
      "default": 5913,
      "Ġrelates": 5914,
      "Ġcompounds": 5915,
      "kin": 5916,
      "Ġfinally": 5917,
      "Ġcurve": 5918,
      "else": 5919,
      "ĠPD": 5920,
      "Ġcrim": 5921,
      "Ġassay": 5922,
      "Ġpolar": 5923,
      "Ġdiseases": 5924,
      "Ġcontinued": 5925,
      "ĠTest": 5926,
      "query": 5927,
      "Ġdefendants": 5928,
      "matory": 5929,
      "Ġlaws": 5930,
      "LS": 5931,
      "Ġaware": 5932,
      "ĠÏĦ": 5933,
      ")^{": 5934,
      "Att": 5935,
      "]--": 5936,
      "Ġwitness": 5937,
      "Ġcarbon": 5938,
      "api": 5939,
      "Ġadvantage": 5940,
      ",-": 5941,
      "dependent": 5942,
      "Ġbreast": 5943,
      "sole": 5944,
      "Ġexplain": 5945,
      "Ġbehavi": 5946,
      "ĠEuropean": 5947,
      "Ġrank": 5948,
      "ilies": 5949,
      "Ġfelt": 5950,
      "Ġefficiency": 5951,
      "Ġoutcome": 5952,
      "ship": 5953,
      "Ġreferred": 5954,
      "Ġimag": 5955,
      "}}^": 5956,
      "Ġlung": 5957,
      "ĠIll": 5958,
      "opyright": 5959,
      "Ġoccurs": 5960,
      "Ġgradu": 5961,
      "Ġ&=": 5962,
      "Ġsmooth": 5963,
      "Ġcontra": 5964,
      "Ġquickly": 5965,
      "Ġplaying": 5966,
      "izations": 5967,
      "Ġrecords": 5968,
      "mt": 5969,
      "Ġfight": 5970,
      "CG": 5971,
      "Ġarm": 5972,
      "Ġbeginning": 5973,
      "Ġrare": 5974,
      "2016": 5975,
      "Ġgenerate": 5976,
      "({": 5977,
      "dimensional": 5978,
      "Ġhandle": 5979,
      "sor": 5980,
      "after": 5981,
      "Ġrefer": 5982,
      "Ġlymph": 5983,
      "Method": 5984,
      "Ġstars": 5985,
      "Ġwife": 5986,
      "ĠAir": 5987,
      "ĠSN": 5988,
      "Ġcluster": 5989,
      "FI": 5990,
      "Ġfootball": 5991,
      "Ġoperations": 5992,
      "Ġestimate": 5993,
      "iance": 5994,
      "Ġflex": 5995,
      "Ġmorning": 5996,
      "Ġrepresentation": 5997,
      "Ġcook": 5998,
      "Message": 5999,
      "hetic": 6000,
      "ications": 6001,
      "Ġwhom": 6002,
      "ALL": 6003,
      "Per": 6004,
      "airs": 6005,
      "Fil": 6006,
      "ras": 6007,
      "ĠTechn": 6008,
      "po": 6009,
      "Ġborder": 6010,
      "Ġagents": 6011,
      "Ġintended": 6012,
      "ditionally": 6013,
      "prot": 6014,
      "Ġincub": 6015,
      "amily": 6016,
      "xml": 6017,
      "omes": 6018,
      "Ġexplained": 6019,
      "Ġpsych": 6020,
      "Ġproperly": 6021,
      "create": 6022,
      "Ġcateg": 6023,
      "Ġsave": 6024,
      "idden": 6025,
      "Ġstable": 6026,
      "Ġmuscle": 6027,
      "ĉĉĉĉ": 6028,
      "ygen": 6029,
      "Ġinternational": 6030,
      "2000": 6031,
      "itative": 6032,
      "umin": 6033,
      "Ġharm": 6034,
      "ijms": 6035,
      "Ġconclusion": 6036,
      "Ġnoise": 6037,
      "ĠRel": 6038,
      "Ġdownload": 6039,
      "Ġvill": 6040,
      "Ġspread": 6041,
      "Ġsleep": 6042,
      "orge": 6043,
      "Ġmeeting": 6044,
      "Ġanimal": 6045,
      "Ġexamined": 6046,
      "ĠBritish": 6047,
      "Ġprotection": 6048,
      "arant": 6049,
      "Ġdiscussion": 6050,
      "lif": 6051,
      "source": 6052,
      "zeta": 6053,
      "ĠDem": 6054,
      "van": 6055,
      "gments": 6056,
      "isation": 6057,
      "ements": 6058,
      "ĠAnal": 6059,
      "101": 6060,
      "Ġsou": 6061,
      "Ġserved": 6062,
      "Ġorigin": 6063,
      "Ġminor": 6064,
      "Ġcru": 6065,
      "Ġoxid": 6066,
      "ĠWork": 6067,
      "Ġmissing": 6068,
      "]--[@": 6069,
      "Ġinvestigated": 6070,
      "Ġpicture": 6071,
      "Ġchronic": 6072,
      "Ġcharacters": 6073,
      "Ġspeak": 6074,
      "Ġaccuracy": 6075,
      "xe": 6076,
      "Ġsymb": 6077,
      "know": 6078,
      "ĠCR": 6079,
      "2010": 6080,
      "User": 6081,
      "kt": 6082,
      "ny": 6083,
      "Pr": 6084,
      "arter": 6085,
      "Ġcompleted": 6086,
      "Ġoperating": 6087,
      "Image": 6088,
      "Ġdescribe": 6089,
      "select": 6090,
      "Ġprogress": 6091,
      "Ġheter": 6092,
      "Ġ38": 6093,
      "ansion": 6094,
      "ca": 6095,
      "Ġtens": 6096,
      "Ġswe": 6097,
      "Ġreached": 6098,
      "lands": 6099,
      "oking": 6100,
      "ĠIndian": 6101,
      "ĠUK": 6102,
      "Ġexistence": 6103,
      "Ġhear": 6104,
      "She": 6105,
      "Ġ64": 6106,
      "Ġmyself": 6107,
      "Ġring": 6108,
      "ĠArm": 6109,
      "ellular": 6110,
      "Ġinteger": 6111,
      "ĠSupreme": 6112,
      "orter": 6113,
      "ells": 6114,
      "ella": 6115,
      "Ġeconomic": 6116,
      "Ġpert": 6117,
      "Ġdeli": 6118,
      "Â¿": 6119,
      "Ġcontrolled": 6120,
      "ĠLondon": 6121,
      "sensors": 6122,
      "ĠBank": 6123,
      "Ġsurround": 6124,
      "olean": 6125,
      "ĠNO": 6126,
      "$(": 6127,
      "ker": 6128,
      "ester": 6129,
      "ĠFl": 6130,
      "operative": 6131,
      "Â¹": 6132,
      "Ġpathway": 6133,
      "rab": 6134,
      "Ġrout": 6135,
      "icated": 6136,
      "ipher": 6137,
      "Ġgly": 6138,
      "istory": 6139,
      "SM": 6140,
      "ĠOff": 6141,
      "ĠGoogle": 6142,
      "BP": 6143,
      "ughter": 6144,
      "ĠHol": 6145,
      "Ġmix": 6146,
      "Ġlooked": 6147,
      "Ġmere": 6148,
      "Ġstraight": 6149,
      "Ġreturns": 6150,
      "appro": 6151,
      "ĠFinally": 6152,
      "ostic": 6153,
      "Ġextended": 6154,
      "rape": 6155,
      "Ġauto": 6156,
      "Ġlibrary": 6157,
      "Ð²": 6158,
      "Ġdelivery": 6159,
      "ĠIII": 6160,
      "ĠSet": 6161,
      "cdots": 6162,
      "Ġarrest": 6163,
      "Ġquery": 6164,
      "Co": 6165,
      "ĠEven": 6166,
      "Ġevaluation": 6167,
      "Ġplane": 6168,
      "ITY": 6169,
      "Simplify": 6170,
      "Ġsubsequent": 6171,
      "ï¼Į": 6172,
      "cup": 6173,
      "Ġolder": 6174,
      "Ġcas": 6175,
      "Ġholds": 6176,
      "ye": 6177,
      "ialog": 6178,
      "ci": 6179,
      "arr": 6180,
      "uing": 6181,
      "à¤": 6182,
      "amine": 6183,
      "Ġhistor": 6184,
      "Ġhttps": 6185,
      "ĠMost": 6186,
      "va": 6187,
      "ĠTwo": 6188,
      "iled": 6189,
      "GL": 6190,
      "Ġisolated": 6191,
      "urt": 6192,
      "ĊĠĠĠĠĠĠĠĠĠĠĠĠ": 6193,
      "Ġinvolve": 6194,
      "Ġequations": 6195,
      "Service": 6196,
      "ÂĨ": 6197,
      "ih": 6198,
      "2011": 6199,
      "iling": 6200,
      "she": 6201,
      "ĠNa": 6202,
      "Sp": 6203,
      "nbsp": 6204,
      "ĠFe": 6205,
      "doc": 6206,
      "phone": 6207,
      "height": 6208,
      "oret": 6209,
      "vol": 6210,
      "Ġperhaps": 6211,
      "ini": 6212,
      "Ġgluc": 6213,
      "Ġunf": 6214,
      "ĠVir": 6215,
      "ĠSecond": 6216,
      "ometric": 6217,
      "Ġjudge": 6218,
      "007": 6219,
      "Ġcriteria": 6220,
      "Ġrac": 6221,
      "valid": 6222,
      "afe": 6223,
      "ĠĠĠĠĠĠĠĠĠĠĠĠĠĠĠĠĠĠĠĠĠĠĠĠĠĠ": 6224,
      "Rep": 6225,
      "SO": 6226,
      "Ġuniform": 6227,
      "Ġmes": 6228,
      "ĠPri": 6229,
      "iveness": 6230,
      "Ġrepresented": 6231,
      "ĠCompany": 6232,
      "ĠDO": 6233,
      "Ġscheme": 6234,
      "Ġintensity": 6235,
      "Ġsafe": 6236,
      "ruit": 6237,
      "anned": 6238,
      "ĠClass": 6239,
      "ĠTw": 6240,
      "Ġna": 6241,
      "jected": 6242,
      "Ġsupply": 6243,
      "First": 6244,
      "rees": 6245,
      "Ġvirus": 6246,
      "Ġtag": 6247,
      "ifications": 6248,
      "process": 6249,
      "ructions": 6250,
      "/-": 6251,
      "Ġremember": 6252,
      "Ġdesired": 6253,
      "cher": 6254,
      "you": 6255,
      "Ġmilitary": 6256,
      "abilities": 6257,
      "Ġglass": 6258,
      "Ġassessment": 6259,
      "Ġboundary": 6260,
      "Ġextension": 6261,
      "Ġimportance": 6262,
      "Ġsensitivity": 6263,
      "Ġsust": 6264,
      "Ġregist": 6265,
      "inder": 6266,
      "Âĳ": 6267,
      ";\\": 6268,
      "Ġintra": 6269,
      "Ġstuff": 6270,
      "Ġinner": 6271,
      "Ġbool": 6272,
      "helial": 6273,
      "Ġhour": 6274,
      "ĠCI": 6275,
      "iler": 6276,
      "wood": 6277,
      "Ġbutton": 6278,
      "Ġpresident": 6279,
      "rd": 6280,
      "ĠCH": 6281,
      "Ġnut": 6282,
      "ĠOver": 6283,
      "Ġchance": 6284,
      "cluding": 6285,
      "Ġcorpor": 6286,
      "asks": 6287,
      "Ġentered": 6288,
      "ĠWashington": 6289,
      "Ġelim": 6290,
      "ĠSy": 6291,
      "istent": 6292,
      ")*(": 6293,
      "External": 6294,
      "ĠJudge": 6295,
      "Ġvictim": 6296,
      "Ġdiet": 6297,
      "Ġmanufacture": 6298,
      "Ġdied": 6299,
      "Ġmetabol": 6300,
      "Our": 6301,
      "Ġeye": 6302,
      "ipe": 6303,
      "Ġ2003": 6304,
      "Ġformula": 6305,
      "ĠLem": 6306,
      "ĠAdd": 6307,
      "Ġoutcomes": 6308,
      "Line": 6309,
      "ĠDavid": 6310,
      "Ġimmune": 6311,
      "icks": 6312,
      "Ġsubstantial": 6313,
      "Ġvary": 6314,
      "ĠRepublic": 6315,
      "ĠRet": 6316,
      "arth": 6317,
      "Ġ${": 6318,
      "Ċĉĉĉĉĉ": 6319,
      "Ġtypename": 6320,
      "Ġcast": 6321,
      "Ġpy": 6322,
      "Ġslightly": 6323,
      "sin": 6324,
      "Ġarter": 6325,
      "Ġexamples": 6326,
      "orders": 6327,
      "Ġready": 6328,
      "Ġexplicit": 6329,
      "Ġseed": 6330,
      "Ġlives": 6331,
      "ĠBoth": 6332,
      "mand": 6333,
      "Ġstock": 6334,
      "main": 6335,
      "Ġdatas": 6336,
      "Ġtranscription": 6337,
      "Ġraised": 6338,
      "ĠYour": 6339,
      "}=\\": 6340,
      "Ġsignaling": 6341,
      "weight": 6342,
      "Ġinterests": 6343,
      "Ġ};": 6344,
      "rated": 6345,
      "Ġstudent": 6346,
      "cat": 6347,
      "Ġgalax": 6348,
      "Ġcampaign": 6349,
      "inations": 6350,
      "sect": 6351,
      "Ġjava": 6352,
      "Ġstatistical": 6353,
      ")[": 6354,
      "SL": 6355,
      "layout": 6356,
      "Ġachieved": 6357,
      "Ġopening": 6358,
      "care": 6359,
      "ership": 6360,
      "iny": 6361,
      "128": 6362,
      "bert": 6363,
      "Î»": 6364,
      "uble": 6365,
      "Model": 6366,
      "Ġtraditional": 6367,
      "Ġsqrt": 6368,
      "ĠHIV": 6369,
      "\"})": 6370,
      "Ġcivil": 6371,
      "pack": 6372,
      "Ġ${{\\": 6373,
      "abil": 6374,
      "ĠTexas": 6375,
      "dem": 6376,
      "Ġtrac": 6377,
      "NU": 6378,
      "Ġauthority": 6379,
      "icrosoft": 6380,
      "Ġnetworks": 6381,
      "Ġ2001": 6382,
      "tex": 6383,
      "only": 6384,
      "NE": 6385,
      "Ġvacc": 6386,
      "ĠDuring": 6387,
      "ĠUsing": 6388,
      "Ġrace": 6389,
      "Ġminim": 6390,
      "Ġimplementation": 6391,
      "Ġserve": 6392,
      "Ġrepeated": 6393,
      "first": 6394,
      "Ġunderlying": 6395,
      "SON": 6396,
      "Ġplus": 6397,
      "Î³": 6398,
      "wed": 6399,
      "Ġemployees": 6400,
      "ORT": 6401,
      "Ġgain": 6402,
      "Ġempt": 6403,
      "Ġlimitations": 6404,
      "Ġsurvey": 6405,
      "Ġpiece": 6406,
      "Ġil": 6407,
      "Ġpept": 6408,
      "iller": 6409,
      "just": 6410,
      "Ġcort": 6411,
      "ĠCT": 6412,
      "poss": 6413,
      "icate": 6414,
      "ĠFrench": 6415,
      "ĠPaul": 6416,
      "Ġmodified": 6417,
      "ĠAR": 6418,
      "However": 6419,
      "ÂĹ": 6420,
      "ĠSolve": 6421,
      "============": 6422,
      "Ġdra": 6423,
      "ether": 6424,
      "Ġobservations": 6425,
      "pg": 6426,
      "Ġelectronic": 6427,
      "ki": 6428,
      "Ġsup": 6429,
      "PI": 6430,
      "Ġbiggest": 6431,
      "Ġcompens": 6432,
      "atever": 6433,
      "Ġcreating": 6434,
      "KE": 6435,
      "Ġtypical": 6436,
      "Ġpros": 6437,
      "Âī": 6438,
      "Ġemployed": 6439,
      "Ġanalog": 6440,
      "how": 6441,
      "Ġpun": 6442,
      "!\"": 6443,
      "Ġtub": 6444,
      "Ġincome": 6445,
      "Ġpossibility": 6446,
      "Ġborn": 6447,
      "ously": 6448,
      "Ġassuming": 6449,
      "Ġsections": 6450,
      "ĠUnder": 6451,
      "Ġtox": 6452,
      "Ġwire": 6453,
      "Ġbra": 6454,
      "145": 6455,
      "Âģ": 6456,
      "crete": 6457,
      "Ġconclude": 6458,
      "Ġkid": 6459,
      "Ġplants": 6460,
      "(\\[": 6461,
      "ĠBlack": 6462,
      "Ġwind": 6463,
      "ĠSD": 6464,
      "Ġassessed": 6465,
      "ĠIndia": 6466,
      "Ġorganization": 6467,
      "\\]).": 6468,
      "Ġangle": 6469,
      "Ġexcess": 6470,
      "Ġthank": 6471,
      "Ġfilms": 6472,
      "Ġprefer": 6473,
      "Ġhappy": 6474,
      "arp": 6475,
      "Ġideas": 6476,
      "rl": 6477,
      "ĠPal": 6478,
      "ĠPost": 6479,
      "Ġrul": 6480,
      "rep": 6481,
      "Ġsales": 6482,
      "mi": 6483,
      "Ġheavy": 6484,
      "Ġoffers": 6485,
      "inger": 6486,
      "Ġequipment": 6487,
      "Ġtrend": 6488,
      "ATION": 6489,
      "ĠER": 6490,
      "Ġstored": 6491,
      "mal": 6492,
      "Ġsen": 6493,
      "ago": 6494,
      "Ġ2002": 6495,
      "Ġbrow": 6496,
      "ĠAny": 6497,
      "MD": 6498,
      "ĠÐ½": 6499,
      "Ġnuclear": 6500,
      "ÃĹ": 6501,
      "ĠFoundation": 6502,
      "ĠÑģ": 6503,
      "Ġlit": 6504,
      "Ġelev": 6505,
      "Ġsto": 6506,
      "GT": 6507,
      "inner": 6508,
      "Ġ500": 6509,
      "Ġdespite": 6510,
      "ateral": 6511,
      "Ġapproaches": 6512,
      "Ġevaluate": 6513,
      "Ġaccord": 6514,
      "Ġwasn": 6515,
      "Ġalter": 6516,
      "Ġappeared": 6517,
      "Ġprotected": 6518,
      "Ġdepends": 6519,
      "Ġcompare": 6520,
      "Ġinvestigation": 6521,
      "Ġthinking": 6522,
      "agen": 6523,
      "Ġmaintain": 6524,
      "Ġtrials": 6525,
      "Ġdeveloping": 6526,
      "Ġvelocity": 6527,
      "ĠItal": 6528,
      "Ġalcoh": 6529,
      "Ġ39": 6530,
      "VA": 6531,
      "rapeut": 6532,
      "plet": 6533,
      "ĠScience": 6534,
      "ville": 6535,
      "asure": 6536,
      "Ġprotocol": 6537,
      "Ġexpert": 6538,
      "ĠOut": 6539,
      "$)": 6540,
      "ĠDon": 6541,
      "ĠHence": 6542,
      "Ġfamilies": 6543,
      "Ġ120": 6544,
      "Ġsch": 6545,
      "Ent": 6546,
      "Ġaccum": 6547,
      "gt": 6548,
      "dt": 6549,
      "Ġ{{\\": 6550,
      "defined": 6551,
      "build": 6552,
      "rog": 6553,
      "Ġspat": 6554,
      "Ġhappen": 6555,
      "Ġdrop": 6556,
      "Ġprocedures": 6557,
      "Ġmental": 6558,
      "!--": 6559,
      "Ġframework": 6560,
      "Ġstimul": 6561,
      "ita": 6562,
      "ochem": 6563,
      "ĠMat": 6564,
      "Ġjurisdiction": 6565,
      "Ġmixed": 6566,
      "Ġyourself": 6567,
      "Ġinsurance": 6568,
      "cretion": 6569,
      "Ġdisch": 6570,
      "jud": 6571,
      "ãĢĤ": 6572,
      "Click": 6573,
      "ĠAppe": 6574,
      "Ġtouch": 6575,
      "Ġrelief": 6576,
      "Ġpure": 6577,
      "Ġdirected": 6578,
      "Ġpolymer": 6579,
      "2018": 6580,
      "Ġdetermination": 6581,
      "Ġgreatest": 6582,
      "Ġstrain": 6583,
      "ĠDirect": 6584,
      "born": 6585,
      "Ġsuitable": 6586,
      "ĠInstitute": 6587,
      "Ġtruth": 6588,
      "ocy": 6589,
      "Ġhair": 6590,
      "draw": 6591,
      "iÃ³n": 6592,
      "template": 6593,
      "Ġreceiving": 6594,
      "Ġversus": 6595,
      "ront": 6596,
      "Ġconstraint": 6597,
      "Ġlock": 6598,
      "Ġpool": 6599,
      "Manager": 6600,
      "ĠmRNA": 6601,
      "Ġnice": 6602,
      "Ġagreed": 6603,
      "nam": 6604,
      "omal": 6605,
      "Ġbud": 6606,
      "Ġclub": 6607,
      "hi": 6608,
      "han": 6609,
      "Che": 6610,
      "annels": 6611,
      "Ġlargest": 6612,
      "\\[[@": 6613,
      "Ġadding": 6614,
      "ĠMart": 6615,
      "Ġrats": 6616,
      "Ġmixt": 6617,
      "Ġpaint": 6618,
      "&=": 6619,
      "**,": 6620,
      "Ġcatch": 6621,
      "Ġtal": 6622,
      "Ġkept": 6623,
      "Ġpreval": 6624,
      "ĠFOR": 6625,
      "child": 6626,
      "ÂŁ": 6627,
      "Ġdil": 6628,
      "Ġaxis": 6629,
      "Ġstrongly": 6630,
      "istor": 6631,
      "Ġdepth": 6632,
      "Ġfear": 6633,
      "Ġconfirm": 6634,
      "ÂŃ": 6635,
      "ĠMac": 6636,
      "Ġinterval": 6637,
      ":\\": 6638,
      "FC": 6639,
      "Ġapplicable": 6640,
      "hens": 6641,
      "ĠMet": 6642,
      "inese": 6643,
      "Ġ75": 6644,
      "Ext": 6645,
      "Ġ[]": 6646,
      "ponse": 6647,
      "Ġnet": 6648,
      "while": 6649,
      "Ġapproved": 6650,
      "Ġscan": 6651,
      "Ġradiation": 6652,
      "Ġshared": 6653,
      "utor": 6654,
      "ĠAL": 6655,
      "ifferent": 6656,
      "Ġnodes": 6657,
      "Î¯": 6658,
      "Ġvitro": 6659,
      "server": 6660,
      "Ġcentury": 6661,
      "undle": 6662,
      "ishes": 6663,
      "ĠIns": 6664,
      "ROM": 6665,
      "apache": 6666,
      "Ġrecovery": 6667,
      "Ġdoubt": 6668,
      "Ġenhance": 6669,
      "Ġmo": 6670,
      "ĠWestern": 6671,
      "čĊĠĠĠĠĠĠĠĠĠĠĠ": 6672,
      "Ġmainly": 6673,
      "Ġscores": 6674,
      "inator": 6675,
      "yg": 6676,
      "Ġregulation": 6677,
      "ĠService": 6678,
      "Ġsexual": 6679,
      "ato": 6680,
      "author": 6681,
      "End": 6682,
      "icine": 6683,
      "Ġinterested": 6684,
      "zen": 6685,
      "Ġchosen": 6686,
      "ERT": 6687,
      "Ġcriminal": 6688,
      "Ġmicrosc": 6689,
      "2009": 6690,
      "ĠÃ©": 6691,
      "Ġarguments": 6692,
      "Ġgrand": 6693,
      "Ġcalls": 6694,
      "Ġsell": 6695,
      "Ġsquare": 6696,
      "hern": 6697,
      "Ġdetailed": 6698,
      "ernel": 6699,
      "Ġcategory": 6700,
      "ĠEv": 6701,
      "Ġdriver": 6702,
      "cel": 6703,
      "Ġduration": 6704,
      "Ġthreshold": 6705,
      "008": 6706,
      "ĠTV": 6707,
      "Ġrise": 6708,
      "Ġtissues": 6709,
      "Ġcorre": 6710,
      "ĠGra": 6711,
      "Ġ_{": 6712,
      "}|": 6713,
      "Ġdriving": 6714,
      "Ġhence": 6715,
      "cles": 6716,
      "ĠMA": 6717,
      "Ġintent": 6718,
      "Ġepis": 6719,
      "ĠRem": 6720,
      "}}{\\": 6721,
      "Ġentitled": 6722,
      "equiv": 6723,
      "Ġvariation": 6724,
      "rig": 6725,
      "ampions": 6726,
      "ĠGreen": 6727,
      "Ġspecified": 6728,
      "ÂļÂĦ": 6729,
      "false": 6730,
      "ouble": 6731,
      "Ġcellular": 6732,
      "aved": 6733,
      "ĠĠĠĠĠĠĠĠĠĠĠĠĠĠĠĠĠĠĠĠĠĠĠĠĠĠĠĠĠĠĠĠĠĠĠĠĠĠĠĠĠĠĠĠĠĠĠĠĠĠĠĠĠĠĠĠĠĠĠĠĠĠĠĠĠĠĠĠĠĠĠĠĠĠĠĠĠĠĠĠĠĠĠĠĠĠĠĠĠĠĠĠĠĠĠĠ": 6734,
      "Vert": 6735,
      "Ġast": 6736,
      "Box": 6737,
      "Ġcredit": 6738,
      "GE": 6739,
      "vi": 6740,
      "Ġexcell": 6741,
      "*/": 6742,
      "Ġidentity": 6743,
      "ĠĠĠĠĠĠĠĠĠĠĠĠĠĠĠĠĠĠĠĠĠĠĠĠĠĠĠ": 6744,
      "ĠAS": 6745,
      "Ġgirl": 6746,
      "Ġneighbor": 6747,
      "Ġadult": 6748,
      "ogenic": 6749,
      "][": 6750,
      "null": 6751,
      "åı": 6752,
      "Ġinvestigate": 6753,
      "AGE": 6754,
      "Ġdimension": 6755,
      "RAN": 6756,
      "Ġresulted": 6757,
      "Ġspent": 6758,
      "ano": 6759,
      "Ġsession": 6760,
      "Ġmist": 6761,
      "Ġcapital": 6762,
      "Ġexchange": 6763,
      "burg": 6764,
      "Ġorient": 6765,
      "ĠField": 6766,
      "Ġscience": 6767,
      "ĠCollege": 6768,
      "DO": 6769,
      "ads": 6770,
      "Ġpix": 6771,
      "Ġthereby": 6772,
      "ords": 6773,
      "Source": 6774,
      "System": 6775,
      "Ġreplic": 6776,
      "ĠWhich": 6777,
      "Ġdisk": 6778,
      "FP": 6779,
      "bal": 6780,
      "Ġfundament": 6781,
      "Ġefforts": 6782,
      "Ġmel": 6783,
      "ĠMiss": 6784,
      "Ġofficer": 6785,
      "Ġcustomers": 6786,
      "ĊĠĠĠĠĠĠĠĠĠĠ": 6787,
      "Ġantibody": 6788,
      "Can": 6789,
      "ya": 6790,
      "Ġdemonstrate": 6791,
      "Ġindicating": 6792,
      "uscript": 6793,
      "Ġintervention": 6794,
      "})\\": 6795,
      "Ġdiscrim": 6796,
      "Ġgrowing": 6797,
      "ĠGermany": 6798,
      "Ġmolecules": 6799,
      "IST": 6800,
      "ĠMS": 6801,
      "dist": 6802,
      "Ġmaybe": 6803,
      "ĠÃ¥": 6804,
      "prop": 6805,
      "Ġappoint": 6806,
      "target": 6807,
      "Ġmetric": 6808,
      "Ġ65": 6809,
      "Ġgranted": 6810,
      "Ġhighlight": 6811,
      "aud": 6812,
      "ĠRich": 6813,
      "Ġwarrant": 6814,
      "ĠCongress": 6815,
      "ius": 6816,
      "Ġgold": 6817,
      "Ġtestified": 6818,
      "src": 6819,
      "ĠCommun": 6820,
      "cp": 6821,
      "Ġcere": 6822,
      "Ġfresh": 6823,
      "option": 6824,
      "GC": 6825,
      "brid": 6826,
      "Ġcharged": 6827,
      "Ġ44": 6828,
      "Ġpercentage": 6829,
      "MC": 6830,
      "Â¨": 6831,
      "iced": 6832,
      "ĠPC": 6833,
      "Ġlen": 6834,
      "model": 6835,
      "ĠMem": 6836,
      "Ġdebt": 6837,
      "uls": 6838,
      "Ġapprec": 6839,
      "omial": 6840,
      "seud": 6841,
      "ainer": 6842,
      "Ġparticle": 6843,
      "ĠGl": 6844,
      "ĠFIG": 6845,
      "byte": 6846,
      "INE": 6847,
      "Ġtemplate": 6848,
      "ias": 6849,
      "Ġcontribution": 6850,
      "Ġoffered": 6851,
      "ona": 6852,
      "ows": 6853,
      "Ġattorney": 6854,
      "organ": 6855,
      "stein": 6856,
      "Bl": 6857,
      "Query": 6858,
      "tab": 6859,
      "Ġacts": 6860,
      "Ġfaith": 6861,
      "Ġtrade": 6862,
      "edy": 6863,
      "ĠIsra": 6864,
      ")}\\": 6865,
      "roke": 6866,
      "Ġparallel": 6867,
      "ĠRober": 6868,
      "Ġempty": 6869,
      "otherapy": 6870,
      "Ġimplies": 6871,
      "Ġdry": 6872,
      "Ġpregn": 6873,
      "Ġfluores": 6874,
      "Ġcoverage": 6875,
      "Ġnic": 6876,
      "ĠJames": 6877,
      "win": 6878,
      "INT": 6879,
      "2008": 6880,
      "Pe": 6881,
      "********************************": 6882,
      "ĠDay": 6883,
      "Fl": 6884,
      "Ġepit": 6885,
      "ician": 6886,
      "rb": 6887,
      "Ġfol": 6888,
      "Ġbiological": 6889,
      "ailed": 6890,
      "PU": 6891,
      "format": 6892,
      "break": 6893,
      "Ġ\"\\": 6894,
      "Ġfeet": 6895,
      "Americ": 6896,
      "Ġenvironmental": 6897,
      "Stream": 6898,
      "^-": 6899,
      "Ġforces": 6900,
      "module": 6901,
      "has": 6902,
      "ĠJack": 6903,
      "ubuntu": 6904,
      "ogenesis": 6905,
      "Ġwait": 6906,
      "Ġbeautiful": 6907,
      "ĠLou": 6908,
      "ĠCouncil": 6909,
      "roduction": 6910,
      "Ġwish": 6911,
      "Ġsun": 6912,
      "ĠPort": 6913,
      "ellig": 6914,
      "cks": 6915,
      "Ġissued": 6916,
      "Ġ00": 6917,
      "ading": 6918,
      "ĠRule": 6919,
      "lang": 6920,
      "Ġarchitect": 6921,
      "FS": 6922,
      "assert": 6923,
      "Ġalgebra": 6924,
      "edia": 6925,
      "Ġoxygen": 6926,
      "Ġholding": 6927,
      "ĠSur": 6928,
      "mg": 6929,
      "Ġplaintiffs": 6930,
      "Which": 6931,
      "ancing": 6932,
      "110": 6933,
      "Ġlisted": 6934,
      "ĠMal": 6935,
      "ione": 6936,
      "ĠSmith": 6937,
      "ĠEast": 6938,
      "Ã¤Âº": 6939,
      "ĠTO": 6940,
      "ugin": 6941,
      "mittee": 6942,
      "button": 6943,
      "Ïī": 6944,
      "ilk": 6945,
      "apers": 6946,
      "Ġoral": 6947,
      "thm": 6948,
      "ceived": 6949,
      "imer": 6950,
      "Ġdepending": 6951,
      "ror": 6952,
      "fold": 6953,
      "Ġalle": 6954,
      "Ġrevers": 6955,
      "linear": 6956,
      "ĠDan": 6957,
      "Ġcat": 6958,
      "press": 6959,
      "inates": 6960,
      "Ġvirtual": 6961,
      "Ġsmallest": 6962,
      "Ġforth": 6963,
      "Ġacute": 6964,
      "uries": 6965,
      "Ġprolif": 6966,
      "Ġstability": 6967,
      "Ġcovered": 6968,
      "ASS": 6969,
      "Ġpersons": 6970,
      "std": 6971,
      "Ġ\\>": 6972,
      "ĠStreet": 6973,
      "Ġter": 6974,
      "night": 6975,
      "ĠOh": 6976,
      "erated": 6977,
      "tag": 6978,
      "Ġbaseline": 6979,
      "Ġcoh": 6980,
      "Ġhem": 6981,
      "Ġprojects": 6982,
      "GA": 6983,
      "Ġvoice": 6984,
      "à¸": 6985,
      "ua": 6986,
      "ĠGive": 6987,
      "Ġfacilit": 6988,
      "sg": 6989,
      "BU": 6990,
      "TA": 6991,
      "Ġpositions": 6992,
      "Ġsettings": 6993,
      "ĠGerman": 6994,
      "rot": 6995,
      "Ġcharacterized": 6996,
      "rian": 6997,
      "Ġmaster": 6998,
      "ellar": 6999,
      "Ġcertainly": 7000,
      "activ": 7001,
      "fd": 7002,
      "LC": 7003,
      "ĠWhite": 7004,
      "Ġguess": 7005,
      "Ġmarked": 7006,
      "web": 7007,
      "Ġvess": 7008,
      "BI": 7009,
      "SYS": 7010,
      "}},": 7011,
      "real": 7012,
      "Âı": 7013,
      "Ġunknown": 7014,
      "FIG": 7015,
      "Ġassembly": 7016,
      "icular": 7017,
      "Ġconstitution": 7018,
      "ĠÎ²": 7019,
      "thern": 7020,
      "Ġmortality": 7021,
      "Ġmanuscript": 7022,
      "ĠWeb": 7023,
      ":\"": 7024,
      "widehat": 7025,
      "ja": 7026,
      "]^.": 7027,
      "opath": 7028,
      "%.": 7029,
      "ura": 7030,
      "Ġ55": 7031,
      "Ġteac": 7032,
      "Ġdanger": 7033,
      "Ġcomposite": 7034,
      "UD": 7035,
      "Ġpopulations": 7036,
      "Ġprosec": 7037,
      "Ġfirm": 7038,
      "event": 7039,
      "ĠpH": 7040,
      "uint": 7041,
      "ipal": 7042,
      "law": 7043,
      "Ġdistingu": 7044,
      "Ġsuggesting": 7045,
      "del": 7046,
      "Ġconj": 7047,
      "ĠChurch": 7048,
      "Ġcommonly": 7049,
      "300": 7050,
      "edom": 7051,
      "Ste": 7052,
      "Ġworkers": 7053,
      "bug": 7054,
      "hent": 7055,
      "Po": 7056,
      "Ġshot": 7057,
      "Ġimprovement": 7058,
      "ä»": 7059,
      "Ġcold": 7060,
      "rypt": 7061,
      "mut": 7062,
      "Ġpor": 7063,
      "Ġplans": 7064,
      "Ġcamera": 7065,
      "emb": 7066,
      "Ġbalance": 7067,
      "img": 7068,
      "While": 7069,
      "ymmet": 7070,
      "css": 7071,
      "Ġallowing": 7072,
      "Ġpartial": 7073,
      "oded": 7074,
      "nav": 7075,
      "anal": 7076,
      "ĠWindows": 7077,
      "ĠDiv": 7078,
      "buf": 7079,
      "standing": 7080,
      "context": 7081,
      "scale": 7082,
      "Number": 7083,
      "agger": 7084,
      "Ġcm": 7085,
      ".</": 7086,
      "month": 7087,
      "ĠÃĹ": 7088,
      "enu": 7089,
      "illa": 7090,
      "adding": 7091,
      "Ġruns": 7092,
      "ĠEngland": 7093,
      "Back": 7094,
      "Ġcourts": 7095,
      "Ġdynamics": 7096,
      "hab": 7097,
      "Ġsi": 7098,
      "Call": 7099,
      "Ġrend": 7100,
      "radi": 7101,
      "umns": 7102,
      "ffect": 7103,
      "Ġlif": 7104,
      "Bar": 7105,
      "Ġprison": 7106,
      "Ġextremely": 7107,
      "idelines": 7108,
      "next": 7109,
      "DNA": 7110,
      "Ġcapable": 7111,
      "names": 7112,
      "Ġdas": 7113,
      "mL": 7114,
      "neg": 7115,
      "ÐµÐ½": 7116,
      "ĠMo": 7117,
      "120": 7118,
      "Ġabund": 7119,
      "ĠType": 7120,
      "Ġcolon": 7121,
      "endment": 7122,
      "Ġindeed": 7123,
      "Ġinhibition": 7124,
      "Ġencoura": 7125,
      "Ġbrother": 7126,
      "Ġexposed": 7127,
      "ftware": 7128,
      "Ġrock": 7129,
      "ĠEX": 7130,
      "elled": 7131,
      "bound": 7132,
      "chang": 7133,
      "Property": 7134,
      "Ġexpansion": 7135,
      "uum": 7136,
      "äº": 7137,
      "Ġfif": 7138,
      "Ġpharm": 7139,
      "ÑĮ": 7140,
      "agon": 7141,
      "Ġstatements": 7142,
      "Ġom": 7143,
      "Ġsubset": 7144,
      "ĠForm": 7145,
      "isher": 7146,
      "Ġduty": 7147,
      "conf": 7148,
      "pload": 7149,
      "iot": 7150,
      "Ġinterpretation": 7151,
      "Ġfrequently": 7152,
      "ests": 7153,
      "ĠPR": 7154,
      "unit": 7155,
      "ĠCanada": 7156,
      "Ġemission": 7157,
      "Ġdys": 7158,
      "ĠAre": 7159,
      "Ġobservation": 7160,
      "ductor": 7161,
      "Ġ47": 7162,
      "Ġconsent": 7163,
      "ĠProgram": 7164,
      "status": 7165,
      "Ġrecording": 7166,
      "cr": 7167,
      "Gen": 7168,
      "usband": 7169,
      "Ġadequ": 7170,
      "Ġplot": 7171,
      "mathsf": 7172,
      "Ġlaser": 7173,
      "Ġresource": 7174,
      "android": 7175,
      "ĠÐ²": 7176,
      "Ġpush": 7177,
      "Ġcompound": 7178,
      "riage": 7179,
      "clusions": 7180,
      "rapeutic": 7181,
      "Ñĩ": 7182,
      "ĠLemma": 7183,
      "ios": 7184,
      "Ġtransf": 7185,
      "Ġadvanced": 7186,
      "ĠÃ¤": 7187,
      "Ġvivo": 7188,
      "Ġfloat": 7189,
      "Ġ41": 7190,
      "Ġdependent": 7191,
      "').": 7192,
      "Ġmostly": 7193,
      "Ġattached": 7194,
      "ĠĊĠĠĠ": 7195,
      "hydro": 7196,
      "ĠPCR": 7197,
      "Ġpark": 7198,
      "Ġattract": 7199,
      "Ġconsidering": 7200,
      "}\\,": 7201,
      "Ġinsp": 7202,
      "align": 7203,
      "ĠCopyright": 7204,
      "ested": 7205,
      "Ġfab": 7206,
      "Any": 7207,
      "Ġnav": 7208,
      "Ġfourth": 7209,
      "Ġinvolving": 7210,
      "ĠOpen": 7211,
      "ienced": 7212,
      "Ġnation": 7213,
      "Ġ43": 7214,
      "Ġsummer": 7215,
      "PRO": 7216,
      "*^": 7217,
      "Ġinteract": 7218,
      "ĠSum": 7219,
      "Ġofficers": 7220,
      "ĠTime": 7221,
      "Ġinstant": 7222,
      "ĠVol": 7223,
      "Ġje": 7224,
      "Ġcomfort": 7225,
      "Ġodd": 7226,
      "ĠMath": 7227,
      "plete": 7228,
      "ontal": 7229,
      "Ġforeign": 7230,
      "Ġbatter": 7231,
      "ĊĊĠĠĠĠĠĠĠĠĠĠĠĠĠĠĠĠĠĠĠĠĠĠĠĠĠĠĠĠĠĠĠĠ": 7232,
      "Ġglucose": 7233,
      "-(": 7234,
      "Ġdifferential": 7235,
      "Ġadministr": 7236,
      "Hz": 7237,
      "dat": 7238,
      "Ġsynd": 7239,
      "Äį": 7240,
      "Ġphenomen": 7241,
      "Ġassigned": 7242,
      "Ġchanging": 7243,
      "Ġstack": 7244,
      "DER": 7245,
      "ette": 7246,
      "Ġhop": 7247,
      "venue": 7248,
      "VD": 7249,
      "ĠStat": 7250,
      "ÂĶ": 7251,
      "Ġremained": 7252,
      "Content": 7253,
      "Ġschools": 7254,
      "Pre": 7255,
      "plant": 7256,
      "Ġspring": 7257,
      "mas": 7258,
      "Part": 7259,
      "Ġspl": 7260,
      "Ġsigned": 7261,
      "sd": 7262,
      "appe": 7263,
      "media": 7264,
      "ĠUnion": 7265,
      "package": 7266,
      "Ġlatest": 7267,
      "racy": 7268,
      "ervation": 7269,
      "Ġbeg": 7270,
      "Ġidentification": 7271,
      "009": 7272,
      "Ġpurchase": 7273,
      "Ġdynamic": 7274,
      "Ġthermal": 7275,
      "Ġbeam": 7276,
      "ilton": 7277,
      "Ġ1999": 7278,
      "ĠJapanese": 7279,
      "Ġreson": 7280,
      "ĊĠĠĠĠĠĠĠĠĠĠĠĠĠĠ": 7281,
      "summary": 7282,
      "ifies": 7283,
      "inite": 7284,
      "Ġspirit": 7285,
      "Ġlig": 7286,
      "mole": 7287,
      "Ġpartners": 7288,
      "Ġburden": 7289,
      "Ġcogn": 7290,
      "ĠChinese": 7291,
      "Ġnumerous": 7292,
      "Ġstrict": 7293,
      "ĠFile": 7294,
      "According": 7295,
      "acent": 7296,
      "Ġpages": 7297,
      "Ġconvers": 7298,
      "ĠPen": 7299,
      "ÏĮ": 7300,
      "Ġalcohol": 7301,
      "Ġdiabetes": 7302,
      "Ġearn": 7303,
      "display": 7304,
      "Ġhuge": 7305,
      "Ġ300": 7306,
      "olf": 7307,
      "ĠMethod": 7308,
      "Ġok": 7309,
      "find": 7310,
      "Ġstandards": 7311,
      ")]": 7312,
      "Ġindepend": 7313,
      "\\]),": 7314,
      "GB": 7315,
      "ĊĊĠĠ": 7316,
      "ĠKe": 7317,
      "house": 7318,
      "ultaneous": 7319,
      "CN": 7320,
      "Ġ49": 7321,
      "chron": 7322,
      "clusive": 7323,
      "omer": 7324,
      "Pos": 7325,
      ")|": 7326,
      "Ġapopt": 7327,
      "sey": 7328,
      "Ġremoval": 7329,
      "Ġskills": 7330,
      "Ġplays": 7331,
      "Ġstructural": 7332,
      "Ġecho": 7333,
      "client": 7334,
      "Ġguide": 7335,
      "ĠDel": 7336,
      "Char": 7337,
      "ĠPhil": 7338,
      "Ġmovie": 7339,
      "stood": 7340,
      "čĊĠĠĠĠĠ": 7341,
      "ko": 7342,
      "json": 7343,
      "Run": 7344,
      "Ġlayers": 7345,
      "ĠBel": 7346,
      "gar": 7347,
      "Â¡": 7348,
      "racellular": 7349,
      "ady": 7350,
      "Ġstrains": 7351,
      "Work": 7352,
      "Ġpossibly": 7353,
      "Ġsociety": 7354,
      "Ġwood": 7355,
      "00000": 7356,
      "Ġoffset": 7357,
      "Ġadvance": 7358,
      "amber": 7359,
      "Ġpossess": 7360,
      "Ġflux": 7361,
      "Ġearth": 7362,
      "ĠAssociation": 7363,
      "Ġflat": 7364,
      "Ġconfidence": 7365,
      "Ġexcellent": 7366,
      "Ge": 7367,
      "Ġantibodies": 7368,
      "icted": 7369,
      "Ġinstrument": 7370,
      "Version": 7371,
      "orthern": 7372,
      "itable": 7373,
      "itions": 7374,
      "Ġhappened": 7375,
      "Ġ\\{": 7376,
      "Ġunivers": 7377,
      "\"),": 7378,
      "ket": 7379,
      "DB": 7380,
      "ĠSO": 7381,
      "Ġcompact": 7382,
      "dim": 7383,
      "ĠĠĠĠĠĠĠĠĠĠĠĠĠĠĠĠĠĠĠĠĠĠĠĠĠĠĠĠ": 7384,
      "\\*\\*": 7385,
      "ĠFree": 7386,
      "property": 7387,
      "ffff": 7388,
      "Client": 7389,
      "osa": 7390,
      "Ġdocuments": 7391,
      "Ġscope": 7392,
      "ĠÃ¦": 7393,
      "Ġargues": 7394,
      "ortunately": 7395,
      "Ġamino": 7396,
      "Ġresearc": 7397,
      "Input": 7398,
      "Ġsensor": 7399,
      "raction": 7400,
      "Ġwel": 7401,
      "Ġshoot": 7402,
      "ĠBen": 7403,
      "Ġ56": 7404,
      "Ġ150": 7405,
      "ERR": 7406,
      "Ġoblig": 7407,
      "Ġformal": 7408,
      "Ġextends": 7409,
      "Ġpal": 7410,
      "Ġoptimal": 7411,
      "Ġdiagram": 7412,
      "Ġwidely": 7413,
      "ĠSpec": 7414,
      "Ġlimits": 7415,
      "Since": 7416,
      "Ġabuse": 7417,
      "Ġabsolute": 7418,
      "ĊĠĠĠĠĠĠĠĠĠĠĠĠĠĠĠĠĠ": 7419,
      "ĠCommittee": 7420,
      "lets": 7421,
      "Ġâī": 7422,
      "čĊĉ": 7423,
      "isted": 7424,
      "}/": 7425,
      "Ġ72": 7426,
      "Ġsupplement": 7427,
      "Ġpredicted": 7428,
      "orption": 7429,
      "TC": 7430,
      "ĠGovernment": 7431,
      "Ġsensitive": 7432,
      "Ġemph": 7433,
      "Ġopened": 7434,
      "Ġspatial": 7435,
      "Ġlab": 7436,
      "Phys": 7437,
      "Ġbab": 7438,
      "ĠLeg": 7439,
      "Us": 7440,
      "ayout": 7441,
      "Ġstem": 7442,
      "uma": 7443,
      "Ġcustomer": 7444,
      "ABLE": 7445,
      "star": 7446,
      "cut": 7447,
      "antic": 7448,
      "Ġdegrees": 7449,
      "ĠHall": 7450,
      "III": 7451,
      "match": 7452,
      "Ġadults": 7453,
      "SR": 7454,
      "Ġcoupling": 7455,
      "Ġouter": 7456,
      "Ġmaps": 7457,
      "mo": 7458,
      "Ġexamination": 7459,
      "Ġsusp": 7460,
      "nson": 7461,
      "control": 7462,
      "effect": 7463,
      "Ġspectra": 7464,
      "mediate": 7465,
      "ĠMany": 7466,
      "Ġkids": 7467,
      "Ġcontribute": 7468,
      "Ġaccurate": 7469,
      "Ġneither": 7470,
      "util": 7471,
      "Ġarticles": 7472,
      "acebook": 7473,
      "ĠUN": 7474,
      "lectric": 7475,
      "olicy": 7476,
      "Some": 7477,
      "png": 7478,
      "args": 7479,
      "Yes": 7480,
      "imb": 7481,
      "before": 7482,
      "Ag": 7483,
      "Ġ46": 7484,
      "Ġconsideration": 7485,
      "They": 7486,
      "Ġrequirement": 7487,
      "missions": 7488,
      "ĠJew": 7489,
      "ston": 7490,
      "Ġhoriz": 7491,
      "Ġcele": 7492,
      "Ġneurons": 7493,
      "ĠIF": 7494,
      "Ġexplan": 7495,
      "Ġowner": 7496,
      "itely": 7497,
      "Ġfocused": 7498,
      "irt": 7499,
      "2007": 7500,
      ">(": 7501,
      "Ġideal": 7502,
      "Å¡": 7503,
      "Psi": 7504,
      "aid": 7505,
      "Ġacknow": 7506,
      "**(": 7507,
      "Ġembed": 7508,
      "oder": 7509,
      "Ġdecisions": 7510,
      "Ġconven": 7511,
      "oxid": 7512,
      "Ġtechnical": 7513,
      "Ġdoll": 7514,
      "etime": 7515,
      "herent": 7516,
      "othing": 7517,
      "Ġ2019": 7518,
      "enance": 7519,
      "Start": 7520,
      "Ġgrav": 7521,
      "Ġtrain": 7522,
      "velopment": 7523,
      "Ġsale": 7524,
      "Ġguarant": 7525,
      "ĠBay": 7526,
      "FO": 7527,
      "ĠED": 7528,
      "ude": 7529,
      "EC": 7530,
      ")+": 7531,
      "Fe": 7532,
      "Ġ&\\": 7533,
      "FR": 7534,
      "Ġraise": 7535,
      "Ġrecognized": 7536,
      "Ġcos": 7537,
      "Ġordered": 7538,
      "Ġdrink": 7539,
      "Ġcart": 7540,
      "ĠUp": 7541,
      "Ġmetast": 7542,
      "Ġemot": 7543,
      "Ġannounced": 7544,
      "message": 7545,
      "Ġrelationships": 7546,
      "Ġreverse": 7547,
      "ĠIV": 7548,
      "mation": 7549,
      "ĊČ": 7550,
      "Ġpotentially": 7551,
      "Base": 7552,
      "oster": 7553,
      "010": 7554,
      "Ġanc": 7555,
      "Ġstrategies": 7556,
      "Ġcitiz": 7557,
      "iological": 7558,
      "wer": 7559,
      "ĠPA": 7560,
      "Ġconsists": 7561,
      "eding": 7562,
      "Ġtor": 7563,
      "Ġwants": 7564,
      "war": 7565,
      "Bu": 7566,
      "vals": 7567,
      "vas": 7568,
      "eles": 7569,
      "Ġadvert": 7570,
      "2006": 7571,
      "CTION": 7572,
      "Ġscal": 7573,
      "arian": 7574,
      "ĠPeople": 7575,
      "Ġpairs": 7576,
      "Ġestimates": 7577,
      "ĠPH": 7578,
      "QU": 7579,
      "Ġviews": 7580,
      "Ġagency": 7581,
      "Ġterminal": 7582,
      "Ġbranch": 7583,
      "Ġelectrical": 7584,
      "Te": 7585,
      "clear": 7586,
      "ĠFrance": 7587,
      "ãģ®": 7588,
      "ÑģÑĤ": 7589,
      "Ġenable": 7590,
      "Ġenhanced": 7591,
      "etal": 7592,
      "je": 7593,
      "CU": 7594,
      "Âĩ": 7595,
      "Ġintegrated": 7596,
      "Ġthin": 7597,
      "ACK": 7598,
      "ĠSal": 7599,
      "contin": 7600,
      "Ġcurves": 7601,
      "claim": 7602,
      "Ġfloor": 7603,
      "usiness": 7604,
      "Ġteams": 7605,
      "ĠPo": 7606,
      "riday": 7607,
      "Ġchurch": 7608,
      "ĠUse": 7609,
      "Ġjoin": 7610,
      "åĪ": 7611,
      "ĠInternet": 7612,
      "ollowing": 7613,
      "Ġtalking": 7614,
      "Ġwat": 7615,
      "entry": 7616,
      "minimal": 7617,
      "ĠServ": 7618,
      "Ġsynthesis": 7619,
      "Ġdram": 7620,
      "Ġdamages": 7621,
      "Ġkit": 7622,
      "([": 7623,
      "oration": 7624,
      "Ġaspects": 7625,
      "Ġsho": 7626,
      "ĠBer": 7627,
      "ussion": 7628,
      "ĠDefendant": 7629,
      "ashion": 7630,
      "ĠRiver": 7631,
      "Ġ1998": 7632,
      "ĠLeague": 7633,
      "Ġexceed": 7634,
      "Ġobjective": 7635,
      "Det": 7636,
      "ochond": 7637,
      "Ġinjection": 7638,
      "Ġdual": 7639,
      "Ġlicense": 7640,
      "Ġsole": 7641,
      "Ġbias": 7642,
      "Ġprovision": 7643,
      "lections": 7644,
      "ATA": 7645,
      "Ġ1997": 7646,
      "Ġwrt": 7647,
      "Ġnorth": 7648,
      "Ġpursu": 7649,
      "Ġwhatever": 7650,
      "Ġcreat": 7651,
      "aine": 7652,
      "ĠMary": 7653,
      "Ġ52": 7654,
      "GR": 7655,
      "eness": 7656,
      "ĠPress": 7657,
      "ĠDec": 7658,
      "Ġviolation": 7659,
      "ĠIndeed": 7660,
      "'$": 7661,
      "Ġchannels": 7662,
      "][@": 7663,
      "Ġcrime": 7664,
      "Ġsupra": 7665,
      "Ñĭ": 7666,
      "ĠEqu": 7667,
      "Ġrecip": 7668,
      "Ġeventually": 7669,
      "Ġeigen": 7670,
      "Ġnam": 7671,
      "CIT": 7672,
      "Ġcorrespond": 7673,
      "Ġnm": 7674,
      "Ġsegment": 7675,
      "Ġcharacteristic": 7676,
      "Ġhappens": 7677,
      "tes": 7678,
      "cis": 7679,
      "ĠSU": 7680,
      "Ġprinciple": 7681,
      "Result": 7682,
      "mode": 7683,
      "ĠTR": 7684,
      "ĠIg": 7685,
      "ais": 7686,
      "ĠNone": 7687,
      "ĠAnn": 7688,
      "oyal": 7689,
      "Ġdetermining": 7690,
      "output": 7691,
      "Ġaccel": 7692,
      "mann": 7693,
      "rine": 7694,
      "Ġsignificance": 7695,
      "kl": 7696,
      "estion": 7697,
      "Ġgone": 7698,
      "Ġinstructions": 7699,
      "VAL": 7700,
      "Ġclassification": 7701,
      "Ġfont": 7702,
      "Ġtraffic": 7703,
      "anol": 7704,
      "Ġtwice": 7705,
      "Ġconsult": 7706,
      "Ġdiscretion": 7707,
      "ĠAustralia": 7708,
      "HA": 7709,
      "ulating": 7710,
      "${": 7711,
      "Ġleaves": 7712,
      "Ġuintptr": 7713,
      "obj": 7714,
      "Ġplanning": 7715,
      "ĠNor": 7716,
      "Ġbinary": 7717,
      "Ġnarrow": 7718,
      "Ġdenote": 7719,
      "Supplementary": 7720,
      "Ġreducing": 7721,
      "Ġspot": 7722,
      "avel": 7723,
      "\\\"": 7724,
      "Ġexperienced": 7725,
      "}+\\": 7726,
      "values": 7727,
      "iples": 7728,
      "Ġcharges": 7729,
      "Ġemployee": 7730,
      "{\"": 7731,
      "Ġdirector": 7732,
      "Ġregression": 7733,
      "'.": 7734,
      "Ġburn": 7735,
      "Ġnative": 7736,
      "search": 7737,
      "àº": 7738,
      "ĠGal": 7739,
      "aper": 7740,
      "Button": 7741,
      "ĠLog": 7742,
      "split": 7743,
      "ĠFin": 7744,
      "2001": 7745,
      "OH": 7746,
      "Ġencoding": 7747,
      "ĠFederal": 7748,
      "Ġincident": 7749,
      "Ġeasier": 7750,
      "Head": 7751,
      "road": 7752,
      "END": 7753,
      "Ġfuel": 7754,
      "Ġscene": 7755,
      "ĠRob": 7756,
      "Ġelection": 7757,
      "ilty": 7758,
      "Ġseemed": 7759,
      "Ġconversion": 7760,
      "Ġmeant": 7761,
      "kins": 7762,
      "Ġgate": 7763,
      "Ġconcluded": 7764,
      "dy": 7765,
      "Ġmand": 7766,
      "orted": 7767,
      "scr": 7768,
      "si": 7769,
      "æľ": 7770,
      "Ġsimultaneous": 7771,
      "Ġtumors": 7772,
      "unday": 7773,
      "Ġcompetition": 7774,
      "ĠIP": 7775,
      "treated": 7776,
      "Dec": 7777,
      "}}^{": 7778,
      "||": 7779,
      "fess": 7780,
      "Ġproportion": 7781,
      "Ġfundamental": 7782,
      "Ġpathways": 7783,
      "Ġappearance": 7784,
      "ben": 7785,
      "odds": 7786,
      "Ġhusband": 7787,
      "isor": 7788,
      "Ġens": 7789,
      "neq": 7790,
      "OCK": 7791,
      "bul": 7792,
      "Ġtelevision": 7793,
      "Ġmechanical": 7794,
      "ipped": 7795,
      "Ġassumed": 7796,
      "Ġorders": 7797,
      "Ġ[[": 7798,
      "Ġ101": 7799,
      "ĠFlor": 7800,
      "Ġbright": 7801,
      "Ġcandidate": 7802,
      "ÂĲ": 7803,
      "Ġmixture": 7804,
      "fonts": 7805,
      "Tra": 7806,
      "Ġdiscovered": 7807,
      "possible": 7808,
      "Ġconsumption": 7809,
      "Ġaccordance": 7810,
      "ĠLi": 7811,
      "400": 7812,
      "nor": 7813,
      "dri": 7814,
      "ĠCE": 7815,
      "Ġ$(\\": 7816,
      "atric": 7817,
      "ĠBrown": 7818,
      "ĠEnd": 7819,
      "Ġwarm": 7820,
      "Ġfeeling": 7821,
      "Ġ51": 7822,
      "ĠEvery": 7823,
      "Note": 7824,
      "Ġsurgical": 7825,
      "Ġchallenges": 7826,
      "oral": 7827,
      "ju": 7828,
      "ÂĢÂĤ": 7829,
      "Ġmeta": 7830,
      "Go": 7831,
      "Ġpayment": 7832,
      "eren": 7833,
      "eless": 7834,
      "Results": 7835,
      "&#": 7836,
      "CV": 7837,
      "ĠVer": 7838,
      "avas": 7839,
      "Ġhypothesis": 7840,
      "asp": 7841,
      "Ġja": 7842,
      "Ġclassical": 7843,
      "Ġdivers": 7844,
      "ĠJer": 7845,
      "Ġmedian": 7846,
      "orrow": 7847,
      "Ġfees": 7848,
      "ani": 7849,
      "Ġtoler": 7850,
      "Ġhole": 7851,
      "number": 7852,
      "Ġtranscript": 7853,
      "Ġopposite": 7854,
      "append": 7855,
      "stack": 7856,
      "ZE": 7857,
      "Ġspeech": 7858,
      "ĠMass": 7859,
      "ĠSoftware": 7860,
      "Ġlegisl": 7861,
      "ĠANY": 7862,
      "ĠmiR": 7863,
      "bu": 7864,
      "Ġgun": 7865,
      "Ġstories": 7866,
      "Ġsouth": 7867,
      "qquad": 7868,
      "ariant": 7869,
      "iant": 7870,
      "HER": 7871,
      "ĠInformation": 7872,
      "La": 7873,
      "ĠPy": 7874,
      "NAME": 7875,
      "Ġdelet": 7876,
      "Ġcollege": 7877,
      "Ġsurfaces": 7878,
      "Ġminimal": 7879,
      "ĠLin": 7880,
      "rey": 7881,
      "Ġdeliver": 7882,
      "Create": 7883,
      "gy": 7884,
      "Controller": 7885,
      "private": 7886,
      "vin": 7887,
      "PCR": 7888,
      "ĠDen": 7889,
      "fill": 7890,
      "ĠAppellant": 7891,
      "Ġnecessarily": 7892,
      "Ġmonitoring": 7893,
      "Ġprevalence": 7894,
      "ĠWil": 7895,
      "Ġ*)": 7896,
      "ĠBY": 7897,
      "(*": 7898,
      "Ġsimpl": 7899,
      "Ġboy": 7900,
      "Ġeffectively": 7901,
      "ysym": 7902,
      "\\!\\!": 7903,
      "ĠRad": 7904,
      "yd": 7905,
      "lines": 7906,
      "Ġperipher": 7907,
      "show": 7908,
      "Ġpatent": 7909,
      "request": 7910,
      "Ġcalc": 7911,
      "\"}),": 7912,
      "ÂĻ": 7913,
      "mes": 7914,
      "Ġkilled": 7915,
      "hether": 7916,
      "Ġ\\*": 7917,
      "rium": 7918,
      "These": 7919,
      "Ġlearned": 7920,
      "Ġmargin": 7921,
      "Post": 7922,
      "Ġ1996": 7923,
      "Ġlinked": 7924,
      "Ġsupports": 7925,
      "Ġaccident": 7926,
      "ĠAdditionally": 7927,
      "Ġreplaced": 7928,
      "ĠPRO": 7929,
      "ĠOnly": 7930,
      "Ġsupporting": 7931,
      "[\"": 7932,
      "Ġautomatically": 7933,
      "Ġamounts": 7934,
      "Ġ96": 7935,
      "card": 7936,
      "apse": 7937,
      "âĢĿ.": 7938,
      "Ġ99": 7939,
      "Override": 7940,
      "documentclass": 7941,
      "Ġalk": 7942,
      "Ġenzyme": 7943,
      "Ġtheorem": 7944,
      "Ġaccepted": 7945,
      "More": 7946,
      "Ġpowerful": 7947,
      "Ġsin": 7948,
      "Ġ54": 7949,
      "Ġrecall": 7950,
      "Ġaccompl": 7951,
      "Ġsuccessfully": 7952,
      "ĠSing": 7953,
      "2005": 7954,
      "Ġvisible": 7955,
      "DC": 7956,
      "ampionship": 7957,
      ".-": 7958,
      "Ġfold": 7959,
      "ĠTom": 7960,
      "Ġ$-": 7961,
      "otypes": 7962,
      "160": 7963,
      "rons": 7964,
      "Ġweap": 7965,
      "ander": 7966,
      "Ġpp": 7967,
      "ĠCL": 7968,
      "Ġdisplayed": 7969,
      "Frame": 7970,
      "ĠChristian": 7971,
      "imately": 7972,
      "Ġreality": 7973,
      "ĠĠĠĠĠĠĠĠĠĠĠĠĠĠĠĠĠĠĠĠĠĠĠĠĠĠĠĠĠ": 7974,
      "Ġtheoret": 7975,
      "urop": 7976,
      "Ġconcerning": 7977,
      "++)": 7978,
      "\"]": 7979,
      "Ġconcerns": 7980,
      "Ð¼": 7981,
      "iral": 7982,
      "Ġusual": 7983,
      ")),": 7984,
      "Mat": 7985,
      "Ġfill": 7986,
      "Ġclusters": 7987,
      "Ġnom": 7988,
      "Ġunable": 7989,
      "Ġfeedback": 7990,
      "Ġdiameter": 7991,
      "Ġrepresentative": 7992,
      "system": 7993,
      "Ġbind": 7994,
      "Ġemployment": 7995,
      "reatment": 7996,
      "ĠJava": 7997,
      "Ġinfo": 7998,
      "Ġincidence": 7999,
      "Ġmutations": 8000,
      "Ġinequ": 8001,
      "Ġjournal": 8002,
      "Ġthanks": 8003,
      "Ġhumans": 8004,
      "}{-": 8005,
      "ĠObject": 8006,
      "Ġunderstood": 8007,
      "Ġenforce": 8008,
      "Ġmotiv": 8009,
      "Ġtherapeutic": 8010,
      "ĠFour": 8011,
      "Ġadvice": 8012,
      "ynomial": 8013,
      "Ġrecommended": 8014,
      "ĠPet": 8015,
      "(_": 8016,
      "Ġdifferentiation": 8017,
      "ipl": 8018,
      "Ġgoals": 8019,
      "Ġgenome": 8020,
      "Ã¸": 8021,
      "Ġbiom": 8022,
      "loc": 8023,
      "ban": 8024,
      "Ġwouldn": 8025,
      "Ġ--------------------------------": 8026,
      "Âª": 8027,
      "Ġiron": 8028,
      "ĠMex": 8029,
      "Ġbelieved": 8030,
      "Default": 8031,
      "American": 8032,
      "}^\\": 8033,
      "Ġelectrode": 8034,
      "ĠMag": 8035,
      "dule": 8036,
      "Ġspaces": 8037,
      "ĠPlease": 8038,
      "Ġ1990": 8039,
      "TYPE": 8040,
      "Ġice": 8041,
      "Ġblocks": 8042,
      "Ġye": 8043,
      "Ġmanager": 8044,
      "Ne": 8045,
      "ĠÏĢ": 8046,
      "Ġleaving": 8047,
      "Ġforming": 8048,
      "Ġcollabor": 8049,
      "GET": 8050,
      "cert": 8051,
      "rip": 8052,
      "ÂĬ": 8053,
      "Ġbrand": 8054,
      "arks": 8055,
      "Ġdisput": 8056,
      "ĠMichael": 8057,
      "Ġalpha": 8058,
      "---------": 8059,
      "Ġfinished": 8060,
      "Ġcompre": 8061,
      "Ġestate": 8062,
      "riz": 8063,
      "]\\": 8064,
      "////////////////": 8065,
      "Ġsolve": 8066,
      "1000": 8067,
      "ena": 8068,
      "Ġphotos": 8069,
      "ĠmM": 8070,
      "Ġfabric": 8071,
      "Ġpromot": 8072,
      "ĠGeorge": 8073,
      "Ġspectral": 8074,
      "ola": 8075,
      "Ġflag": 8076,
      "Two": 8077,
      "ĠAlex": 8078,
      "Ġends": 8079,
      "onday": 8080,
      "Action": 8081,
      "~,": 8082,
      "Âĭ": 8083,
      "adian": 8084,
      "addr": 8085,
      "writ": 8086,
      "Then": 8087,
      "Ġroute": 8088,
      "Ġstages": 8089,
      "ĠAPI": 8090,
      "Ġcarcin": 8091,
      "Ġorganic": 8092,
      "%),": 8093,
      "Â¦": 8094,
      "Ġorth": 8095,
      "ructure": 8096,
      "iki": 8097,
      "Ġconstructed": 8098,
      "ĊĠĠĠĠĠĠĠĠĠĠĠĠĠĠĠĠĠĠĠĠĠĠĠĠĠĠĠĠĠĠĠ": 8099,
      "Ġconflict": 8100,
      "Ġrat": 8101,
      "Ġ1000": 8102,
      "Ġthousands": 8103,
      "Ġsought": 8104,
      "Ġpromote": 8105,
      "idity": 8106,
      "Ġprev": 8107,
      "Ġdaughter": 8108,
      "tx": 8109,
      "Ġrelax": 8110,
      "Ġhelps": 8111,
      "Ġentirely": 8112,
      "lik": 8113,
      "Off": 8114,
      "asy": 8115,
      "ĠÂµ": 8116,
      "Why": 8117,
      "2004": 8118,
      "Response": 8119,
      "Ġzone": 8120,
      "Ġcalling": 8121,
      "ĠYes": 8122,
      "Ġsplit": 8123,
      "Ġrotation": 8124,
      "never": 8125,
      "Point": 8126,
      "mosp": 8127,
      "Ġneglig": 8128,
      "upg": 8129,
      "ĠFre": 8130,
      "ĠAfrica": 8131,
      "tw": 8132,
      "ĠThomas": 8133,
      "float": 8134,
      "ropy": 8135,
      "Ġproved": 8136,
      "Ġtransformation": 8137,
      "theless": 8138,
      "asc": 8139,
      "Ġsemicon": 8140,
      "Ġremark": 8141,
      "Rev": 8142,
      "Ġpreced": 8143,
      "Âĥ": 8144,
      "Ġrespective": 8145,
      "aven": 8146,
      "ĠStand": 8147,
      "rows": 8148,
      "BO": 8149,
      "Ġphoto": 8150,
      "rank": 8151,
      "rh": 8152,
      "ĠCS": 8153,
      "Ġgast": 8154,
      "Ġtargets": 8155,
      "Ġimplemented": 8156,
      "150": 8157,
      "ĠON": 8158,
      "***": 8159,
      "Ġgrid": 8160,
      "Ġaggreg": 8161,
      "product": 8162,
      "Ġ53": 8163,
      "ĠSam": 8164,
      "ĠKore": 8165,
      "setlength": 8166,
      "Ġlowest": 8167,
      "ulture": 8168,
      "Ġgap": 8169,
      "ĠMedical": 8170,
      "ensed": 8171,
      "Ġfarm": 8172,
      "Ġrepair": 8173,
      "Ġinformed": 8174,
      "ĠĠĠĠĠĠĠĠĠĠĠĠĠĠĠĠĠĠĠĠĠĠĠĠĠĠĠĠĠĠĠ": 8175,
      "bsy": 8176,
      "sign": 8177,
      "amsmath": 8178,
      "pert": 8179,
      "ĠIts": 8180,
      "Ġembry": 8181,
      "Ġrich": 8182,
      "Page": 8183,
      "Ġoperators": 8184,
      "Âİ": 8185,
      "scill": 8186,
      "ears": 8187,
      "dx": 8188,
      "Ġscatter": 8189,
      "ijer": 8190,
      "DM": 8191,
      "Ġunion": 8192,
      "ssymb": 8193,
      "----------": 8194,
      "BR": 8195,
      "LECT": 8196,
      "amssymb": 8197,
      "iliar": 8198,
      "Ġobser": 8199,
      "Ġinstalled": 8200,
      "irable": 8201,
      "riend": 8202,
      "Ġcontainer": 8203,
      "oxy": 8204,
      "Ġamaz": 8205,
      "Ġsimulations": 8206,
      "Ġpropos": 8207,
      "111": 8208,
      "avascript": 8209,
      "Ġdepos": 8210,
      "water": 8211,
      "amsfonts": 8212,
      "ympt": 8213,
      "Ġfish": 8214,
      "Script": 8215,
      "BM": 8216,
      "iner": 8217,
      "rsfs": 8218,
      "Ġvote": 8219,
      "Handler": 8220,
      "mathrsfs": 8221,
      "amsbsy": 8222,
      "Ġcouldn": 8223,
      "ermine": 8224,
      "legal": 8225,
      "Ġ-\\": 8226,
      "Ġacids": 8227,
      "wasysym": 8228,
      "ipt": 8229,
      "Ġos": 8230,
      ">,": 8231,
      "EG": 8232,
      "idemargin": 8233,
      "ĠMult": 8234,
      "creen": 8235,
      "Check": 8236,
      "Ġinvolves": 8237,
      "Ġhydrogen": 8238,
      "Ġcohort": 8239,
      "Ġ110": 8240,
      "otted": 8241,
      "Ġpreparation": 8242,
      "oddsidemargin": 8243,
      "Layout": 8244,
      "perties": 8245,
      "Ġoverl": 8246,
      "attice": 8247,
      "Ġtour": 8248,
      "upgreek": 8249,
      "$_": 8250,
      "Rel": 8251,
      "ĠGold": 8252,
      "Ġnotes": 8253,
      "irty": 8254,
      "Ġcommitted": 8255,
      "Ġtail": 8256,
      "ĠâĢ¦": 8257,
      "Ġtit": 8258,
      "ĠWhy": 8259,
      "Ġ57": 8260,
      "Status": 8261,
      "uting": 8262,
      "aria": 8263,
      "method": 8264,
      "ivered": 8265,
      "etch": 8266,
      "Ġshell": 8267,
      "Ġidentical": 8268,
      "pdf": 8269,
      "Ð´": 8270,
      "ĠFacebook": 8271,
      "Ġradius": 8272,
      "emia": 8273,
      "Ġtemperatures": 8274,
      "ĠLife": 8275,
      "icago": 8276,
      "Ġproliferation": 8277,
      "ĊĊĊ": 8278,
      "Ġesc": 8279,
      "Ġrig": 8280,
      "Ġhelped": 8281,
      "Ġstanding": 8282,
      "}^{(": 8283,
      "ĠHT": 8284,
      "attr": 8285,
      "DD": 8286,
      "Ġlocations": 8287,
      "look": 8288,
      "Î¬": 8289,
      "Ġrough": 8290,
      "bel": 8291,
      "blog": 8292,
      "Ġcategories": 8293,
      "Am": 8294,
      "edef": 8295,
      "Load": 8296,
      "1999": 8297,
      "Ġregister": 8298,
      "ĠProject": 8299,
      "Ġoffense": 8300,
      "HR": 8301,
      "Ġhousing": 8302,
      ")}{": 8303,
      "Gu": 8304,
      "Ġperman": 8305,
      "Ġsubstantially": 8306,
      "Ġdraft": 8307,
      "common": 8308,
      "Ġscreening": 8309,
      "2019": 8310,
      "Ġprimarily": 8311,
      ":**": 8312,
      "Ġrect": 8313,
      "Ġurl": 8314,
      "Ġclosest": 8315,
      "ĠLouis": 8316,
      "Ġmanifest": 8317,
      "Ġshock": 8318,
      "oplas": 8319,
      "Ġhybrid": 8320,
      "Ġobj": 8321,
      "Ġmarkers": 8322,
      "Ġattend": 8323,
      "Ġmessages": 8324,
      "fficients": 8325,
      "ICE": 8326,
      "Ġdisorders": 8327,
      "Ġinitially": 8328,
      "Ġassumption": 8329,
      "Ġ59": 8330,
      "imensions": 8331,
      "ĠWill": 8332,
      "pop": 8333,
      "ogram": 8334,
      "Ġcorrelated": 8335,
      "Ġplur": 8336,
      "rays": 8337,
      "Ġdescribes": 8338,
      "Ġconcern": 8339,
      "Ġvertical": 8340,
      "Ret": 8341,
      "Ġembod": 8342,
      "Ġseconds": 8343,
      "Ġped": 8344,
      "Ġcorrectly": 8345,
      "gent": 8346,
      "Ġgrad": 8347,
      "Ġfiber": 8348,
      "Ġassign": 8349,
      "ĠTheir": 8350,
      "ĠCorp": 8351,
      "ijerph": 8352,
      "BD": 8353,
      "Âķ": 8354,
      "Ġthickness": 8355,
      "Ġstrugg": 8356,
      "Ġsmart": 8357,
      "Ġassistance": 8358,
      "ĠAnother": 8359,
      "atients": 8360,
      "]);": 8361,
      "Ġpump": 8362,
      "ĠPlan": 8363,
      "his": 8364,
      "LR": 8365,
      "Ġbillion": 8366,
      "Ġpara": 8367,
      "Ġhal": 8368,
      "Ġmeasuring": 8369,
      "Ġaf": 8370,
      "-----------": 8371,
      "Dep": 8372,
      "Ġaren": 8373,
      "_.": 8374,
      "options": 8375,
      "Ġmaintained": 8376,
      "Ġtasks": 8377,
      "Ġclients": 8378,
      "apped": 8379,
      "ami": 8380,
      "ĠGood": 8381,
      "asic": 8382,
      "sequently": 8383,
      "ameters": 8384,
      "HS": 8385,
      "molecules": 8386,
      "Ġsyndrome": 8387,
      "Ġknows": 8388,
      "anta": 8389,
      "Ġtube": 8390,
      "Rem": 8391,
      "\\^": 8392,
      "SET": 8393,
      "Ġsimulation": 8394,
      "chen": 8395,
      "riers": 8396,
      "Ġalloc": 8397,
      "ĠReview": 8398,
      "aped": 8399,
      "Ġcausing": 8400,
      "adow": 8401,
      "ĠOnce": 8402,
      "Ġexplore": 8403,
      "ĠNon": 8404,
      "Ġcrystal": 8405,
      "Ġyes": 8406,
      "ĠOS": 8407,
      "Ġmitochond": 8408,
      "ĠOffice": 8409,
      "Ġdiscovery": 8410,
      "Ġdirectory": 8411,
      ".^[@": 8412,
      "Ġmagnitude": 8413,
      "Ob": 8414,
      "utory": 8415,
      "Select": 8416,
      "Ġseeing": 8417,
      "ĠExt": 8418,
      "ĠFlorida": 8419,
      "Ġfreedom": 8420,
      "ensions": 8421,
      "hedul": 8422,
      "OOST": 8423,
      "terior": 8424,
      "ora": 8425,
      "Ġreact": 8426,
      "Ġextend": 8427,
      "PAR": 8428,
      "PM": 8429,
      "Ġexamine": 8430,
      "Tem": 8431,
      "Ġcov": 8432,
      "Ġplastic": 8433,
      "wing": 8434,
      "ups": 8435,
      "Ġoscill": 8436,
      "Ġsubmitted": 8437,
      "ĠRT": 8438,
      "125": 8439,
      "Ġfaster": 8440,
      "Ġlic": 8441,
      "=(": 8442,
      "ĉĉĉ": 8443,
      "ĠJes": 8444,
      "ĠInterest": 8445,
      "ĠNews": 8446,
      "Ġran": 8447,
      "Ġapplying": 8448,
      "URL": 8449,
      "ĠWIT": 8450,
      "Ġclar": 8451,
      "Ġrecognition": 8452,
      "bour": 8453,
      "iber": 8454,
      "minus": 8455,
      "\"}](": 8456,
      "Ġadhes": 8457,
      "Ġcommunities": 8458,
      "mult": 8459,
      "Ġdecide": 8460,
      "ĠBook": 8461,
      "ilib": 8462,
      "Ġsheet": 8463,
      "ĠLong": 8464,
      "Ġadopted": 8465,
      "]]": 8466,
      "pref": 8467,
      "Sm": 8468,
      "ohn": 8469,
      "ĠAccordingly": 8470,
      "eds": 8471,
      "ĠÏĥ": 8472,
      "ĠQue": 8473,
      "ologic": 8474,
      "ĠĠĠĠĠĠĠĠĠĠĠĠĠĠĠĠĠĠĠĠĠĠĠĠĠĠĠĠĠĠ": 8475,
      "ĠIsrael": 8476,
      "ĠAppeals": 8477,
      "Ġ85": 8478,
      "Ġcontributions": 8479,
      "Âħ": 8480,
      "aturday": 8481,
      "Ġcoupled": 8482,
      "Ġliability": 8483,
      "high": 8484,
      "Ġdesc": 8485,
      "Ġintr": 8486,
      "arden": 8487,
      "ums": 8488,
      "AF": 8489,
      "});": 8490,
      "ĠRead": 8491,
      "ĠJohnson": 8492,
      "Ġmarried": 8493,
      "Filter": 8494,
      "2002": 8495,
      "gence": 8496,
      "Ġclosely": 8497,
      "alloc": 8498,
      "Ġdependence": 8499,
      "ĠGreat": 8500,
      "Thanks": 8501,
      "Ġprincipal": 8502,
      "Ġmic": 8503,
      "Ġsecure": 8504,
      "vial": 8505,
      "Ġannual": 8506,
      "ĠIr": 8507,
      "inical": 8508,
      "Ġnine": 8509,
      "rosc": 8510,
      "axis": 8511,
      "osh": 8512,
      "Ġseek": 8513,
      "Ġsides": 8514,
      "ĠHospital": 8515,
      "Although": 8516,
      "Ġ:)": 8517,
      "Ġpractices": 8518,
      "tyle": 8519,
      "<\\": 8520,
      "ĠEN": 8521,
      "Ġquarter": 8522,
      "erman": 8523,
      "Ġ$|": 8524,
      "ĠLike": 8525,
      "Ġinduction": 8526,
      "ÂĺÂ¯": 8527,
      "}.$$": 8528,
      "ĠWell": 8529,
      "phen": 8530,
      "Ġfilled": 8531,
      "hr": 8532,
      "Ġcardiac": 8533,
      "Ġhaven": 8534,
      "ĠNE": 8535,
      "strong": 8536,
      "Ġuncertain": 8537,
      "Web": 8538,
      "Ġbehaviour": 8539,
      "Ġbudget": 8540,
      "ĠWilliam": 8541,
      "Ġris": 8542,
      "///": 8543,
      "Format": 8544,
      "Ġguilty": 8545,
      "Ġdegrad": 8546,
      "chem": 8547,
      "Ġmask": 8548,
      "Ġchart": 8549,
      "flu": 8550,
      "ĠSociety": 8551,
      "umer": 8552,
      "çĶ": 8553,
      "Ġpolicies": 8554,
      "âĢĿ,": 8555,
      "txt": 8556,
      "sche": 8557,
      "Ġbacteria": 8558,
      "ĠBur": 8559,
      "}({\\": 8560,
      "Ġ58": 8561,
      "Ġlesions": 8562,
      "yles": 8563,
      "Ġsigns": 8564,
      "Ġsupposed": 8565,
      "Ġmerely": 8566,
      "Ġreligious": 8567,
      "Ġpolynomial": 8568,
      "Max": 8569,
      "256": 8570,
      "Ġtick": 8571,
      "Ġmethyl": 8572,
      "Ġstarts": 8573,
      "aterials": 8574,
      "rif": 8575,
      "tings": 8576,
      "--------------": 8577,
      "oday": 8578,
      "Ġapoptosis": 8579,
      "Ġprofiles": 8580,
      "Ġspend": 8581,
      "åħ": 8582,
      "Ġquad": 8583,
      "ĠOffic": 8584,
      "approx": 8585,
      "Pi": 8586,
      "life": 8587,
      "grade": 8588,
      "Ġofficials": 8589,
      "Ġjoined": 8590,
      "ĠĊĠ": 8591,
      "azine": 8592,
      "Ġdisorder": 8593,
      "Â¾": 8594,
      "Ġevident": 8595,
      "Ġpeace": 8596,
      "Ġpropag": 8597,
      "Ġunsigned": 8598,
      "Ġjobs": 8599,
      "Ġ>=": 8600,
      "positive": 8601,
      "Ġrail": 8602,
      "ĠSou": 8603,
      "cribed": 8604,
      "Ġintegral": 8605,
      "utely": 8606,
      "ĠLord": 8607,
      "Ġstatistically": 8608,
      "2003": 8609,
      "Ġirre": 8610,
      "Cons": 8611,
      "Eng": 8612,
      "plex": 8613,
      "ÂłÂłÂłÂłÂłÂłÂłÂł": 8614,
      "Ġdestroy": 8615,
      "Ġseparated": 8616,
      "Ġneutral": 8617,
      "Ġbow": 8618,
      "Ġbes": 8619,
      "Ġadmitted": 8620,
      "Ġcomputed": 8621,
      "Ġscientific": 8622,
      "gi": 8623,
      "odium": 8624,
      "Ġtreatments": 8625,
      "ilos": 8626,
      "-------------": 8627,
      "Ġ1995": 8628,
      "Ġoste": 8629,
      "Ġremote": 8630,
      "Ġcorresponds": 8631,
      "ophy": 8632,
      "Ġsizes": 8633,
      "ĠÐ¸": 8634,
      "Ġintention": 8635,
      "ĠRobert": 8636,
      "Å¾": 8637,
      "000000": 8638,
      "exec": 8639,
      ")))": 8640,
      "Ġinsulin": 8641,
      "ifts": 8642,
      "then": 8643,
      "Another": 8644,
      "Â´": 8645,
      "Ġchlor": 8646,
      "oids": 8647,
      "ĠUs": 8648,
      "google": 8649,
      "Ġmeth": 8650,
      "ĠWAR": 8651,
      "Ġguy": 8652,
      "Ġsemiconductor": 8653,
      "nel": 8654,
      "Ġadjacent": 8655,
      "Ġship": 8656,
      "Tab": 8657,
      "Ġinnov": 8658,
      "Ġcoefficients": 8659,
      "estic": 8660,
      "Ġinflammatory": 8661,
      "Ġafford": 8662,
      "ĠSign": 8663,
      "fit": 8664,
      "ĠAcc": 8665,
      "dec": 8666,
      "ä½": 8667,
      ")}$": 8668,
      "Ġmodify": 8669,
      "lements": 8670,
      "urally": 8671,
      "iary": 8672,
      "Ġsea": 8673,
      "Ġinstruction": 8674,
      "ĠMrs": 8675,
      "Ġtill": 8676,
      "ĠHel": 8677,
      "Ġforced": 8678,
      "å®": 8679,
      "nections": 8680,
      "ĠFed": 8681,
      "Ġiter": 8682,
      "Ġknock": 8683,
      "Ġmanaged": 8684,
      "ĠCentral": 8685,
      "ensus": 8686,
      "inte": 8687,
      "Ġpreferred": 8688,
      "OM": 8689,
      "Ġeditor": 8690,
      "eller": 8691,
      "center": 8692,
      "ĠHy": 8693,
      "ounter": 8694,
      "250": 8695,
      "Ġmutant": 8696,
      "anda": 8697,
      "nut": 8698,
      "ĠControl": 8699,
      "Ġrid": 8700,
      "Ġven": 8701,
      "eck": 8702,
      "Next": 8703,
      "regulated": 8704,
      "ĠÎµ": 8705,
      "Ð°ÑĤ": 8706,
      "ACE": 8707,
      "Ġstimulation": 8708,
      "ĠErr": 8709,
      "ĠVirgin": 8710,
      "rolled": 8711,
      "Ġmaintenance": 8712,
      "Ġpseud": 8713,
      "Ġacquired": 8714,
      "ounce": 8715,
      "Ġalign": 8716,
      "Ġatmosp": 8717,
      "Ġintegration": 8718,
      "Ġpractical": 8719,
      "Ġdepartment": 8720,
      "Ġstaining": 8721,
      "ĠSk": 8722,
      "Ġcontents": 8723,
      "Ġcoefficient": 8724,
      "ursday": 8725,
      "roc": 8726,
      "Ġinhibitor": 8727,
      "Mon": 8728,
      "Ġeat": 8729,
      "expected": 8730,
      "Ġdispers": 8731,
      "?âĢĿ": 8732,
      "EP": 8733,
      "gress": 8734,
      "Ġguidelines": 8735,
      "Ġdelivered": 8736,
      "Last": 8737,
      "mits": 8738,
      "agnetic": 8739,
      "Function": 8740,
      "ws": 8741,
      "Ġprogression": 8742,
      "âĶ": 8743,
      "Find": 8744,
      "ĠModel": 8745,
      "Ġlaboratory": 8746,
      "Ġcontroller": 8747,
      "Before": 8748,
      "Ġmodes": 8749,
      "ito": 8750,
      "ĠSu": 8751,
      "Ġwaiting": 8752,
      "ĠZe": 8753,
      "ocyte": 8754,
      "mathscr": 8755,
      "caps": 8756,
      "Ġconviction": 8757,
      "Link": 8758,
      "uster": 8759,
      "ĠObama": 8760,
      "Ġvit": 8761,
      "ĠTur": 8762,
      "Ġfunds": 8763,
      "Ġbecoming": 8764,
      "ĠMax": 8765,
      "Ġbeta": 8766,
      "ĠEduc": 8767,
      "ao": 8768,
      "Ġinfected": 8769,
      "push": 8770,
      "ĠChild": 8771,
      "ĠMad": 8772,
      "Ġsuperior": 8773,
      "ednes": 8774,
      "Ġbug": 8775,
      ")*(-": 8776,
      "some": 8777,
      "ĠRo": 8778,
      "ventions": 8779,
      "Ġadverse": 8780,
      "112": 8781,
      "AV": 8782,
      "Ġconcerned": 8783,
      "Ġacadem": 8784,
      "Ġble": 8785,
      "NP": 8786,
      "ĠSecret": 8787,
      "Ã¶r": 8788,
      "Ġrecon": 8789,
      "Ġlargely": 8790,
      "Ġsubsequently": 8791,
      "Ġgel": 8792,
      "ello": 8793,
      "haust": 8794,
      "Ġjump": 8795,
      "auss": 8796,
      "DP": 8797,
      "Ġthereof": 8798,
      "deg": 8799,
      "Ġperforming": 8800,
      "root": 8801,
      "ĠView": 8802,
      ",'": 8803,
      "Ġplain": 8804,
      "tri": 8805,
      "everal": 8806,
      "Ġclaimed": 8807,
      "Ġreviewed": 8808,
      "Ġacting": 8809,
      "header": 8810,
      "Ġincubated": 8811,
      "Ġ$\\{": 8812,
      "ĠBill": 8813,
      "ĠDemocr": 8814,
      "rolog": 8815,
      "Ġtransferred": 8816,
      "ĠDate": 8817,
      "ni": 8818,
      "Ġprofession": 8819,
      "Ġpartner": 8820,
      "Ġsummar": 8821,
      "Äģ": 8822,
      "Ġfraud": 8823,
      "Ġexpensive": 8824,
      "Mode": 8825,
      "Ġgender": 8826,
      "019": 8827,
      "ĠArch": 8828,
      "Ġvillage": 8829,
      "Ġpicking": 8830,
      "Ġeconomy": 8831,
      "Cell": 8832,
      "NR": 8833,
      "ĠSP": 8834,
      "Ġleader": 8835,
      "teen": 8836,
      "rition": 8837,
      "make": 8838,
      "scrib": 8839,
      "STR": 8840,
      ".$": 8841,
      "Ġcircul": 8842,
      "HC": 8843,
      "ĠCle": 8844,
      "Ġreader": 8845,
      "Ġwaste": 8846,
      "Ġrequested": 8847,
      "Ġseparation": 8848,
      "ĠFrank": 8849,
      "Ġsuc": 8850,
      "ogeneous": 8851,
      "Ġrecover": 8852,
      "'\\": 8853,
      "auge": 8854,
      "Ġske": 8855,
      "Ġshut": 8856,
      "ocard": 8857,
      "atient": 8858,
      "ĠScott": 8859,
      "UI": 8860,
      "Ġdream": 8861,
      "Ġimpossible": 8862,
      "Open": 8863,
      "zo": 8864,
      "direct": 8865,
      "Ġfashion": 8866,
      "Ġcounts": 8867,
      "ĠAfrican": 8868,
      "Ġju": 8869,
      "AY": 8870,
      "Ġ===": 8871,
      "quare": 8872,
      "Ġ128": 8873,
      "Ġ\\\"": 8874,
      "Ġprices": 8875,
      "Other": 8876,
      "Ġfan": 8877,
      "itrogen": 8878,
      "Ġintellig": 8879,
      "Ġmiles": 8880,
      "FOR": 8881,
      "filter": 8882,
      "åĲ": 8883,
      "Ð°Ð½": 8884,
      "when": 8885,
      "Ġcorrection": 8886,
      "ĠMont": 8887,
      "Ġphosphory": 8888,
      "omatic": 8889,
      "Ġkill": 8890,
      "Ġviral": 8891,
      "enth": 8892,
      "Ġpresum": 8893,
      "Ġreactions": 8894,
      "osome": 8895,
      "Are": 8896,
      "Ġrational": 8897,
      "Ġpin": 8898,
      "note": 8899,
      "Ġtight": 8900,
      "ĠCheck": 8901,
      "Ġguys": 8902,
      "Ġreceptors": 8903,
      "Ġessentially": 8904,
      "Ã¢": 8905,
      "Ġdrawn": 8906,
      "dden": 8907,
      "Ġbroken": 8908,
      "ĠNetwork": 8909,
      "avelength": 8910,
      "Ġsurrounding": 8911,
      "Ac": 8912,
      "lymp": 8913,
      "Ġdefinitely": 8914,
      "Ġcomprehens": 8915,
      "olt": 8916,
      "ĠSuper": 8917,
      "Ġjour": 8918,
      "=\"#": 8919,
      "ILE": 8920,
      "ĠChicago": 8921,
      "sis": 8922,
      "ednesday": 8923,
      "Ġmail": 8924,
      "Ġmagnet": 8925,
      "ĠEU": 8926,
      "Ġchamber": 8927,
      "Ġta": 8928,
      "Ġdomains": 8929,
      "ECT": 8930,
      "GS": 8931,
      "Ġmir": 8932,
      "NOT": 8933,
      "Ġactivated": 8934,
      "second": 8935,
      "hl": 8936,
      "msgid": 8937,
      "uzz": 8938,
      "),\\": 8939,
      "{-": 8940,
      "ĠIR": 8941,
      "ĠSpring": 8942,
      "Ġamplitude": 8943,
      "Ġsac": 8944,
      "ĠCarol": 8945,
      "Ġdischarge": 8946,
      "Ġedges": 8947,
      "Ġ66": 8948,
      "akers": 8949,
      "Î¿Ïħ": 8950,
      "click": 8951,
      "017": 8952,
      "Ġseeking": 8953,
      "ĠDivision": 8954,
      "ĠFire": 8955,
      "Ġpieces": 8956,
      "Ġreviews": 8957,
      "Ġcompat": 8958,
      "\\}$": 8959,
      "Ġextensive": 8960,
      "pression": 8961,
      "Ġtrees": 8962,
      "ĠBre": 8963,
      "Ø§": 8964,
      "Ġcognitive": 8965,
      "Buffer": 8966,
      "called": 8967,
      "Ġefficacy": 8968,
      "Ġbars": 8969,
      "015": 8970,
      "Token": 8971,
      "Ġmomentum": 8972,
      "Ġmapping": 8973,
      "Ġextracted": 8974,
      "Ġwherein": 8975,
      "Ġacet": 8976,
      "ellee": 8977,
      "Ġnumerical": 8978,
      "Ġinvestment": 8979,
      "020": 8980,
      "otox": 8981,
      "ĠFore": 8982,
      "Disc": 8983,
      "Ġstreet": 8984,
      "ployment": 8985,
      "Ġgrade": 8986,
      "Ġgrown": 8987,
      "Ġconsc": 8988,
      "msgstr": 8989,
      "asts": 8990,
      "Ġpet": 8991,
      "Ġcompliance": 8992,
      "Ġcommission": 8993,
      "Ġpenal": 8994,
      "Ġbattery": 8995,
      "sur": 8996,
      "Ã§Ã£o": 8997,
      "Ġclock": 8998,
      "Ġupdated": 8999,
      "adata": 9000,
      "Ġcalculations": 9001,
      "Ġnurs": 9002,
      "Ġdriven": 9003,
      "Vis": 9004,
      "Ġ..": 9005,
      "ĠInstead": 9006,
      "Ġpursuant": 9007,
      "Ġkeeping": 9008,
      "Ġmarketing": 9009,
      "%;": 9010,
      "}_\\": 9011,
      "Ġ\"[": 9012,
      "Ġcrow": 9013,
      "UM": 9014,
      "Ġassist": 9015,
      "Ġbacterial": 9016,
      "Ġprohib": 9017,
      "Ġ400": 9018,
      "Ġinvent": 9019,
      "Ġsurve": 9020,
      "ĠSimilarly": 9021,
      "ĠParty": 9022,
      "ĠSil": 9023,
      "Ġ1994": 9024,
      "Ġcalculate": 9025,
      "Ġmassive": 9026,
      "Ġconsequence": 9027,
      "Ġrapidly": 9028,
      "Ġsymmetry": 9029,
      "Ġrecom": 9030,
      "Ġinfections": 9031,
      "zero": 9032,
      "Ġhypert": 9033,
      "ĠLabor": 9034,
      "UP": 9035,
      "Options": 9036,
      "ANT": 9037,
      "Instance": 9038,
      "Ġpil": 9039,
      "Tex": 9040,
      "Ġposts": 9041,
      "Ġgirls": 9042,
      "Ġintermediate": 9043,
      ").$$": 9044,
      "asi": 9045,
      "Ġpoll": 9046,
      "Ġ**(": 9047,
      "Ġinjuries": 9048,
      "uesday": 9049,
      "Ġsomewhat": 9050,
      "igan": 9051,
      "Ġdenom": 9052,
      "ĠVis": 9053,
      "Pointer": 9054,
      "Ġdiagnostic": 9055,
      "iverse": 9056,
      "Ġroles": 9057,
      "Ġlos": 9058,
      "icious": 9059,
      "ĠBig": 9060,
      "ĠHill": 9061,
      ")$$": 9062,
      "Ġcontinues": 9063,
      "Ġgalaxies": 9064,
      "Ġfer": 9065,
      "Ġcalculation": 9066,
      "Ġsubgroup": 9067,
      "Ġcolumns": 9068,
      "graph": 9069,
      "105": 9070,
      "Ġfinds": 9071,
      "255": 9072,
      "HECK": 9073,
      "avor": 9074,
      "Ġdisclosed": 9075,
      "Ġprovisions": 9076,
      "Ġcomplications": 9077,
      "aming": 9078,
      "ĠHamilton": 9079,
      "ĠJustice": 9080,
      "}[": 9081,
      "Ġ63": 9082,
      "OW": 9083,
      "Ġfavorite": 9084,
      "FD": 9085,
      "Ġcytok": 9086,
      "Ġthor": 9087,
      "Ġarbitrary": 9088,
      "enter": 9089,
      "Ġcloud": 9090,
      "Ġended": 9091,
      "Ġdeaths": 9092,
      "Ġpassing": 9093,
      "Ġsubt": 9094,
      "Ġsudden": 9095,
      "Ġbird": 9096,
      "ĠSunday": 9097,
      "ĠName": 9098,
      "ĠText": 9099,
      "Ġpublication": 9100,
      "Label": 9101,
      "Ġplurality": 9102,
      "Current": 9103,
      "Ġlose": 9104,
      "Ġinstitution": 9105,
      "ji": 9106,
      "Ġcircle": 9107,
      "Â¸Âį": 9108,
      "Ġlie": 9109,
      "pet": 9110,
      "ĠHuman": 9111,
      "bottom": 9112,
      "Ġnormally": 9113,
      "Ġcontribut": 9114,
      "athered": 9115,
      "Ġdocumentation": 9116,
      "eger": 9117,
      "Ġtrip": 9118,
      "ruptcy": 9119,
      "Ġdataset": 9120,
      "Ġperiods": 9121,
      "ĠStar": 9122,
      "Ġdecay": 9123,
      "Ġstroke": 9124,
      "}-\\": 9125,
      ":(": 9126,
      "HD": 9127,
      "Ġmatters": 9128,
      "ipping": 9129,
      "PER": 9130,
      "Ġmutation": 9131,
      "ĠJones": 9132,
      "Ġvascular": 9133,
      "Ġprobe": 9134,
      "Ġdecom": 9135,
      "Ġfragment": 9136,
      "ochemical": 9137,
      "atural": 9138,
      "Ġprinciples": 9139,
      "Arg": 9140,
      "Ġdoctor": 9141,
      "ĠTor": 9142,
      "Ġfacilities": 9143,
      "Ġturns": 9144,
      "Ġcond": 9145,
      "Ġstopped": 9146,
      "ĠFriday": 9147,
      "Ġasking": 9148,
      ",$$": 9149,
      "Ġwilling": 9150,
      "\"\"": 9151,
      "TP": 9152,
      "Ġprediction": 9153,
      "Â£": 9154,
      "Ġdistributions": 9155,
      "Ġbirths": 9156,
      "onia": 9157,
      "ĠProv": 9158,
      "Ġretrie": 9159,
      "Ġxml": 9160,
      "Ġkernel": 9161,
      "itudes": 9162,
      "Ġmigration": 9163,
      "ova": 9164,
      "achment": 9165,
      "Ġrear": 9166,
      "Ġserial": 9167,
      "Ġintroduce": 9168,
      "People": 9169,
      "Row": 9170,
      "ĠJose": 9171,
      "element": 9172,
      "Ġreliable": 9173,
      "Ġpig": 9174,
      "ĠDC": 9175,
      "Resource": 9176,
      "yer": 9177,
      "ĠWilliams": 9178,
      "Ġimplied": 9179,
      "description": 9180,
      "Ġexplanation": 9181,
      "Ġworse": 9182,
      "Ġdecreasing": 9183,
      "buffer": 9184,
      "late": 9185,
      "Ġ68": 9186,
      "Ġfunding": 9187,
      "Child": 9188,
      "istan": 9189,
      "ĠCorpor": 9190,
      "ĠÃł": 9191,
      "Ġcontem": 9192,
      "Listener": 9193,
      "Ġrent": 9194,
      "associ": 9195,
      "Ġbrowser": 9196,
      "Ġlogic": 9197,
      "Ġrespir": 9198,
      "Ġtruly": 9199,
      "Ġcreation": 9200,
      "ali": 9201,
      "Ġexperiences": 9202,
      "Ġapart": 9203,
      "Description": 9204,
      "Ġlived": 9205,
      "Ġproceedings": 9206,
      "aft": 9207,
      "Ġinternet": 9208,
      "Ġdimensions": 9209,
      "Ġrounded": 9210,
      "pin": 9211,
      "ĠAmong": 9212,
      "Ġversions": 9213,
      "Ġbin": 9214,
      "Ġresponsibility": 9215,
      "Gener": 9216,
      "ĠOrder": 9217,
      "ĠNav": 9218,
      "mediated": 9219,
      "Ġheader": 9220,
      "Î®": 9221,
      "Ġasc": 9222,
      "types": 9223,
      "Mult": 9224,
      "vs": 9225,
      "Ġaid": 9226,
      "BB": 9227,
      "Ġfans": 9228,
      "ĠAnalysis": 9229,
      "xiety": 9230,
      "ĠEarth": 9231,
      "Ġoriginally": 9232,
      "ĠServices": 9233,
      "Pa": 9234,
      "Ġperipheral": 9235,
      "Ġsuscept": 9236,
      "tml": 9237,
      "ĠURL": 9238,
      "device": 9239,
      "*]{},": 9240,
      "ensor": 9241,
      "ãĢģ": 9242,
      "Introduction": 9243,
      "ĠFil": 9244,
      "{(": 9245,
      "ĠBack": 9246,
      "ÎŃ": 9247,
      "Ġsector": 9248,
      "Ġfellow": 9249,
      "Ġtom": 9250,
      "|^": 9251,
      "Âµ": 9252,
      "Ġfract": 9253,
      "Ġmurder": 9254,
      "Ġhelpful": 9255,
      "ĠSun": 9256,
      "Ġseat": 9257,
      "Ġpurchased": 9258,
      "VM": 9259,
      "Ġ}}": 9260,
      "years": 9261,
      "Ġ62": 9262,
      "home": 9263,
      "Ġconsole": 9264,
      "ĠTem": 9265,
      "antly": 9266,
      "Ġexcluded": 9267,
      "Ġdepression": 9268,
      "aration": 9269,
      "Ġstick": 9270,
      "Ġinflammation": 9271,
      "DI": 9272,
      "iana": 9273,
      "sen": 9274,
      "Min": 9275,
      "etry": 9276,
      "iology": 9277,
      "Ġton": 9278,
      "Ġatoms": 9279,
      "Ġpermit": 9280,
      "ila": 9281,
      "Ġconform": 9282,
      "idential": 9283,
      "project": 9284,
      "Ġrows": 9285,
      "Ġng": 9286,
      "Ġpip": 9287,
      "las": 9288,
      "Const": 9289,
      "spring": 9290,
      "ĠProte": 9291,
      "Ġfram": 9292,
      "Ġsufficiently": 9293,
      "Collect": 9294,
      "Ġlens": 9295,
      "ifer": 9296,
      "ĠNever": 9297,
      "Ġpresentation": 9298,
      "Ġcarrier": 9299,
      "bro": 9300,
      "onald": 9301,
      "close": 9302,
      "Ġcrucial": 9303,
      "Ġcomposed": 9304,
      "Ġvalve": 9305,
      "Ġsetup": 9306,
      "Ġterr": 9307,
      "Ġminute": 9308,
      "}^{-": 9309,
      "ĠHen": 9310,
      "ĠApple": 9311,
      "dagger": 9312,
      "endar": 9313,
      "Ġ67": 9314,
      "Ġpictures": 9315,
      "Ġmam": 9316,
      "ÂĿ": 9317,
      "WAR": 9318,
      "monary": 9319,
      "unct": 9320,
      "Ġcelebr": 9321,
      "oston": 9322,
      "ĊĊĠĠĠĠĠĠĠĠĠĠĠĠĠĠĠ": 9323,
      "ACT": 9324,
      "ĠAv": 9325,
      "ULT": 9326,
      "Ġentity": 9327,
      "vector": 9328,
      "Ġsand": 9329,
      "Case": 9330,
      "#:": 9331,
      "Ġsoil": 9332,
      "ĠLand": 9333,
      "Ġstabil": 9334,
      "Ġcapture": 9335,
      "Ġrepresenting": 9336,
      "ĠFind": 9337,
      "Oh": 9338,
      "ĠBased": 9339,
      "Block": 9340,
      "Ġster": 9341,
      "ĠÐ´": 9342,
      "ĠCr": 9343,
      "spe": 9344,
      "Write": 9345,
      "Output": 9346,
      "ses": 9347,
      "Ġlattice": 9348,
      "determ": 9349,
      "west": 9350,
      "Ġassemb": 9351,
      "Ġwear": 9352,
      "Ġcash": 9353,
      "cit": 9354,
      "Ġproducing": 9355,
      "Ġrequests": 9356,
      "Ġfamiliar": 9357,
      "Mar": 9358,
      "Ġcritic": 9359,
      "Ġresearchers": 9360,
      "elihood": 9361,
      "Ġsatisfy": 9362,
      "bool": 9363,
      "Ġvul": 9364,
      "ĠAcadem": 9365,
      "ĠMean": 9366,
      "600": 9367,
      "ĠKey": 9368,
      "Ġobserve": 9369,
      "ĠCap": 9370,
      "Ġsulf": 9371,
      "wa": 9372,
      "ĠEst": 9373,
      "Ġcopyright": 9374,
      "Ð¾Ð²": 9375,
      "Ġchief": 9376,
      "ovascular": 9377,
      "Ġrenal": 9378,
      "![](": 9379,
      "Ġsoci": 9380,
      "Ġkne": 9381,
      "umes": 9382,
      "Ġtheoretical": 9383,
      ".;": 9384,
      "Please": 9385,
      "---------------": 9386,
      "response": 9387,
      "Ġinduce": 9388,
      "agraph": 9389,
      "ĠIsland": 9390,
      "ĠÐ¾": 9391,
      "Ġfails": 9392,
      "actic": 9393,
      "Ġmanip": 9394,
      "<?": 9395,
      "Ġreads": 9396,
      "ĠDu": 9397,
      "Ġexhaust": 9398,
      "WS": 9399,
      "allow": 9400,
      "Ġfluct": 9401,
      "Ġvariations": 9402,
      "Ġsed": 9403,
      "Ġmission": 9404,
      "Ġrub": 9405,
      "Ġperturb": 9406,
      "yscall": 9407,
      "Ġtranslation": 9408,
      "Ġsemi": 9409,
[...]
